'<pad>_'
'<EOS>_'
', _'
'._'
'the_'
'de_'
'of_'
''_'
'and_'
'la_'
'to_'
'et_'
'a_'
'l_'
'_'
'’_'
'des_'
'les_'
'in_'
'à_'
's_'
'd_'
'-_'
'le_'
'en_'
'du_'
'is_'
'that_'
'for_'
'on_'
'que_'
'un_'
'une_'
' (_'
'pour_'
'est_'
'dans_'
'The_'
'with_'
'qui_'
'be_'
'sur_'
'au_'
') _'
'as_'
'by_'
'are_'
'par_'
'/_'
'e_'
'. _'
'it_'
'or_'
'this_'
'not_'
'plus_'
'have_'
'ce_'
'pas_'
'aux_'
'il_'
'from_'
'an_'
'ne_'
'qu_'
'I_'
'will_'
'at_'
'which_'
'n_'
'has_'
'sont_'
'ou_'
'Le_'
'1_'
' _'
'ont_'
'was_'
'se_'
'its_'
'nous_'
'y_'
'we_'
'avec_'
'es_'
'their_'
'2_'
': _'
'Les_'
'La_'
'être_'
'all_'
'; _'
' - _'
' – _'
'pays_'
'you_'
'ing_'
'Commission_'
'été_'
'L_'
'can_'
'A_'
'r_'
'also_'
'In_'
'more_'
'would_'
'been_'
't_'
'vous_'
'but_'
'ed_'
'3_'
',_'
'cette_'
'other_'
'European_'
'son_'
'ces_'
'Europe_'
'should_'
')._'
'Il_'
'leur_'
'Canada_'
'5_'
'), _'
'4_'
'er_'
'comme_'
'(_'
'nt_'
'they_'
'autres_'
'one_'
'information_'
'It_'
'non_'
'C_'
'were_'
'fait_'
'Union_'
'ses_'
'countries_'
'c_'
'mais_'
'international_'
'This_'
'• _'
'services_'
'new_'
'our_'
'?_'
'En_'
'Nations_'
'elle_'
'' _'
'entre_'
'même_'
'must_'
'than_'
'States_'
'who_'
'only_'
'such_'
'tout_'
'si_'
'these_'
'peut_'
';_'
'no_'
' "_'
'time_'
'there_'
'Mr_'
'sa_'
'your_'
'faire_'
'We_'
'out_'
'if_'
'any_'
'United_'
'6_'
'do_'
'je_'
'é_'
'about_'
':_'
'aussi_'
'S_'
'développement_'
'had_'
'leurs_'
'Council_'
'7_'
'so_'
' : _'
'bien_'
'into_'
'M_'
'politique_'
'important_'
'États_'
'may_'
'question_'
'up_'
'ils_'
'également_'
'public_'
'work_'
' “_'
'report_'
'tous_'
'President_'
'people_'
'rapport_'
'part_'
'his_'
'national_'
'Nous_'
'between_'
'Conseil_'
'some_'
'well_'
'use_'
'when_'
'us_'
'droits_'
'need_'
'0_'
'point_'
'under_'
'very_'
'deux_'
'support_'
'like_'
'world_'
'10_'
'ainsi_'
'situation_'
'ment_'
'development_'
'm_'
'% _'
'made_'
'those_'
'8_'
'sans_'
'rights_'
'européenne_'
'them_'
'year_'
'economic_'
'ons_'
'place_'
'programme_'
'most_'
'membres_'
'Committee_'
'Je_'
'o_'
'years_'
'doit_'
'" _'
'two_'
'contre_'
'9_'
'policy_'
'social_'
'many_'
'what_'
'és_'
'très_'
'D_'
'country_'
'first_'
'protection_'
'over_'
'sécurité_'
'ant_'
'2000_'
'But_'
'possible_'
'dont_'
'travail_'
'service_'
'me_'
'political_'
'2002_'
'ent_'
'including_'
'2001_'
'i_'
'now_'
'he_'
'take_'
'human_'
'Dans_'
'2003_'
'long_'
'General_'
'system_'
'soit_'
'make_'
'où_'
'ation_'
'cas_'
'against_'
'votre_'
'ée_'
'could_'
'US_'
'était_'
'action_'
'through_'
'ly_'
'government_'
'session_'
'monde_'
' _'
'sous_'
'E_'
'notre_'
'ng_'
'Convention_'
'being_'
'where_'
'droit_'
'because_'
'financial_'
'autre_'
'Member_'
'application_'
'2004_'
'questions_'
'way_'
'000_'
'article_'
'économique_'
'programmes_'
'Président_'
')_'
'EU_'
'santé_'
'peuvent_'
'toutes_'
'my_'
'al_'
'15_'
'z_'
'On_'
'efforts_'
'nos_'
'personnes_'
'right_'
'encore_'
'As_'
'parties_'
'If_'
'China_'
'moins_'
'avoir_'
'partie_'
'Pour_'
'conditions_'
'able_'
'health_'
'mesures_'
'politiques_'
'système_'
'2005_'
'within_'
'institutions_'
'ans_'
'après_'
'Parliament_'
'cadre_'
'both_'
'even_'
'cours_'
're_'
'same_'
'ées_'
'20_'
'order_'
'compte_'
'global_'
'gouvernement_'
'after_'
'For_'
'” _'
'population_'
'temps_'
'plan_'
'nombre_'
'30_'
'doivent_'
'Ce_'
'12_'
'toute_'
'used_'
'sera_'
'matière_'
'number_'
'afin_'
'Unis_'
'Mais_'
'how_'
'process_'
'avons_'
'Si_'
'jour_'
'hotel_'
' $_'
'market_'
'cet_'
'2006_'
'11_'
'Monsieur_'
'production_'
'much_'
'elles_'
'ait_'
'fois_'
'International_'
'issues_'
'marché_'
'enfants_'
'mise_'
'niveau_'
' , _'
'respect_'
'budget_'
'women_'
'change_'
'b_'
'provide_'
'années_'
'security_'
'just_'
'homme_'
'There_'
'Hotel_'
'projet_'
'without_'
'Comité_'
'vue_'
'g_'
'good_'
'before_'
'avant_'
'lui_'
'hôtel_'
'Unies_'
'position_'
'2007_'
'site_'
'level_'
'ressources_'
'donc_'
'does_'
'own_'
'future_'
'vie_'
'resolution_'
'during_'
'cela_'
'high_'
'h_'
'Un_'
'Parlement_'
'see_'
'per_'
'measures_'
'P_'
'B_'
'!_'
'each_'
'De_'
'général_'
'law_'
'internationale_'
'concernant_'
'activités_'
'produits_'
'large_'
'based_'
' ._'
'exemple_'
'shall_'
'j_'
'issue_'
'children_'
'available_'
'À_'
'while_'
' « _'
'continue_'
'État_'
'notamment_'
'hui_'
'ai_'
'age_'
'recherche_'
'ion_'
'grande_'
'ci_'
'three_'
'manière_'
'importance_'
'car_'
'R_'
'te_'
'end_'
'base_'
'avait_'
'résolution_'
'lieu_'
'activities_'
'européen_'
'areas_'
'members_'
'x_'
'set_'
'still_'
'femmes_'
'demande_'
'access_'
'gestion_'
'ers_'
'No_'
'area_'
'fin_'
'case_'
'fact_'
'1999_'
'processus_'
'view_'
'ensure_'
'25_'
'peu_'
'term_'
'. _'
'tant_'
'Cette_'
'Canadian_'
'depuis_'
'date_'
'certains_'
'Une_'
'Chine_'
'resources_'
'secteur_'
'relations_'
'last_'
'données_'
'community_'
'State_'
'certain_'
'160_'
've_'
'p_'
'croissance_'
'00_'
'particular_'
'13_'
'lors_'
'groupe_'
'example_'
'To_'
'tion_'
'then_'
'nouveau_'
'further_'
'taux_'
'k_'
'growth_'
'f_'
'coopération_'
'ceux_'
'générale_'
'faut_'
'J_'
'14_'
'trade_'
'total_'
'decision_'
'année_'
'am_'
'vote_'
'pourrait_'
'aide_'
'’ _'
'since_'
'means_'
'today_'
'ts_'
'meeting_'
'toujours_'
'millions_'
'déjà_'
'aujourd_'
'less_'
'24_'
'said_'
'period_'
'role_'
'data_'
'face_'
'assistance_'
'Government_'
'provided_'
'power_'
'ensemble_'
'chaque_'
'17_'
'research_'
'policies_'
' ?_'
'type_'
'implementation_'
'help_'
'dire_'
'Group_'
'selon_'
'ra_'
'accord_'
'America_'
'seulement_'
'million_'
'mesure_'
'France_'
'attention_'
'2008_'
'prendre_'
'too_'
'main_'
'www_'
'problème_'
'prix_'
'therefore_'
'problèmes_'
'free_'
'Assemblée_'
'ies_'
'Office_'
'local_'
'course_'
'needs_'
'document_'
'devrait_'
'rôle_'
'vers_'
'organisations_'
'cooperation_'
'accès_'
'force_'
'New_'
'terme_'
'given_'
'entreprises_'
'current_'
'cannot_'
'18_'
'points_'
'administration_'
'That_'
'major_'
'life_'
'following_'
'alors_'
'nature_'
'management_'
'informations_'
'day_'
'centre_'
'T_'
'paix_'
'moment_'
'taken_'
'state_'
'interest_'
'utilisation_'
'Ces_'
'particulier_'
'effet_'
'dollars_'
'sector_'
'result_'
'participation_'
'ni_'
'UE_'
'They_'
'économie_'
'different_'
'mettre_'
'savoir_'
'façon_'
'affaires_'
'Internet_'
'ions_'
'ement_'
'second_'
'page_'
'objectifs_'
'find_'
'effective_'
'Assembly_'
'50_'
'- _'
'trois_'
'nouvelle_'
'business_'
'great_'
'education_'
'Secretary_'
'room_'
'legal_'
'21_'
'related_'
'premier_'
'laquelle_'
'full_'
'World_'
'grand_'
'euro_'
'pouvoir_'
'com_'
'basis_'
'résultats_'
'mondiale_'
'already_'
'whether_'
'necessary_'
' % _'
'période_'
'directive_'
'common_'
'forces_'
'domaine_'
'concerne_'
' » _'
'région_'
'environnement_'
'economy_'
'account_'
'control_'
'transport_'
'next_'
'Commissioner_'
'working_'
'regional_'
'plusieurs_'
'peace_'
'cause_'
'Programme_'
'Iran_'
'However_'
'serait_'
'regard_'
'personnel_'
'every_'
'documents_'
'citoyens_'
'Au_'
'rs_'
'few_'
'developing_'
'capital_'
'At_'
'société_'
'risk_'
'qualité_'
'nouvelles_'
'better_'
'become_'
'raison_'
'F_'
'proposal_'
'mois_'
'know_'
'ez_'
'back_'
'among_'
'Health_'
'violence_'
'président_'
'military_'
'décision_'
'devons_'
'best_'
'première_'
'étaient_'
'These_'
'Par_'
'Des_'
'want_'
'problem_'
'far_'
'another_'
'Vous_'
'voir_'
'actions_'
'16_'
'sein_'
'justice_'
'group_'
'beaucoup_'
'Article_'
'u_'
'nuclear_'
'increase_'
'impact_'
'dit_'
' | _'
'products_'
'her_'
'required_'
'problems_'
'note_'
'include_'
'clear_'
'N_'
'&_'
'small_'
'quality_'
'ordre_'
'jusqu_'
'however_'
'Development_'
' :_'
'say_'
'region_'
'rate_'
'ns_'
'debate_'
'1998_'
'special_'
'ble_'
'., _'
'particularly_'
'eux_'
'believe_'
'contrôle_'
'adopted_'
'war_'
'initiative_'
'did_'
'crisis_'
'agreement_'
'terms_'
'ici_'
'energy_'
'assurer_'
'suite_'
'loi_'
'solution_'
'ques_'
'progress_'
'private_'
'2009_'
'besoin_'
'..._'
'œuvre_'
'down_'
'You_'
'section_'
'rules_'
'groups_'
'Organisation_'
'soient_'
'recent_'
'general_'
'chambres_'
'What_'
'O_'
'All_'
' _'
'égard_'
'why_'
'specific_'
'present_'
'Service_'
'G_'
'staff_'
'go_'
'Africa_'
'water_'
'might_'
'cent_'
' [_'
'visant_'
'proposition_'
'give_'
'22_'
'quelques_'
'past_'
'initiatives_'
'ie_'
'culture_'
'Iraq_'
'guerre_'
'ur_'
'making_'
'intérêt_'
'held_'
'And_'
'100_'
'training_'
'draft_'
'capacity_'
'sommes_'
'mon_'
'form_'
'compris_'
'come_'
'état_'
'zone_'
'project_'
'pendant_'
'personne_'
'here_'
'celui_'
'cases_'
'Elle_'
'real_'
'nouveaux_'
'ge_'
'emploi_'
'Centre_'
'nécessaire_'
'key_'
'get_'
'foreign_'
'costs_'
'value_'
'paragraphe_'
'nombreux_'
'formation_'
'ca_'
'soutien_'
'ments_'
'around_'
'version_'
'program_'
'line_'
'groupes_'
'food_'
'air_'
'With_'
'Minister_'
'American_'
'ville_'
'présent_'
'projets_'
'Act_'
'seront_'
'him_'
'eu_'
'décembre_'
'National_'
'tax_'
'relevant_'
'nom_'
'fonds_'
'communication_'
'hope_'
'création_'
' : _'
'outre_'
'mis_'
'approach_'
'DE_'
'sujet_'
'souvent_'
'Republic_'
'put_'
'parce_'
'opinion_'
'citizens_'
'19_'
'using_'
'technologies_'
'address_'
'French_'
'proposed_'
'ministre_'
'cost_'
'December_'
'23_'
'subject_'
'direction_'
'When_'
'évaluation_'
'ux_'
'organizations_'
'dialogue_'
'developed_'
'Rights_'
'He_'
'systems_'
'results_'
'third_'
'police_'
'party_'
'authorities_'
'vos_'
'th_'
'review_'
'care_'
'called_'
'Etats_'
'31_'
'ry_'
'rooms_'
'needed_'
'crise_'
'contribution_'
'Community_'
' '_'
'obligations_'
'due_'
'dispositions_'
'city_'
'several_'
'promotion_'
'family_'
'established_'
'Security_'
'risque_'
'requirements_'
'open_'
'environment_'
'celle_'
'agenda_'
'Human_'
'voudrais_'
'rates_'
'publique_'
'provides_'
'projects_'
'others_'
'matter_'
'greater_'
'Ontario_'
'Afrique_'
'marchés_'
'least_'
'bon_'
'aient_'
'June_'
'Bureau_'
'40_'
'titre_'
'tes_'
'systèmes_'
'sociale_'
'six_'
'reports_'
'renseignements_'
'often_'
'experts_'
'discrimination_'
'building_'
'étant_'
'member_'
'examen_'
'avis_'
'again_'
'Germany_'
' & _'
'éducation_'
'valeur_'
'mieux_'
'commission_'
'appropriate_'
'"_'
'économiques_'
'above_'
'taking_'
'reste_'
'paragraph_'
'mission_'
'suis_'
'minutes_'
'individual_'
'environmental_'
'agit_'
'Japan_'
'rather_'
'objectif_'
'coordination_'
'Secrétaire_'
'Ils_'
'27_'
'various_'
'upon_'
'society_'
'levels_'
'changes_'
'Amérique_'
'short_'
'ma_'
'lorsque_'
'établissement_'
'présente_'
'off_'
'lutte_'
'especially_'
'income_'
'field_'
'done_'
'dernier_'
'central_'
'Mme_'
'II_'
'1997_'
'think_'
'moyen_'
'leaders_'
'investment_'
'forme_'
'devraient_'
'\u_'
'Cela_'
'Board_'
'60_'
'trop_'
'together_'
'itself_'
'fully_'
'debt_'
'create_'
'September_'
'pris_'
'instruments_'
'industry_'
'font_'
'communauté_'
'aucun_'
'Conference_'
' '
'organisation_'
'nécessaires_'
'framework_'
'five_'
'commerce_'
'26_'
'technology_'
'states_'
'responsibility_'
'plupart_'
'moyens_'
'experience_'
'concerned_'
'chez_'
'améliorer_'
'addition_'
'Services_'
'unique_'
'règlement_'
'rapporteur_'
'markets_'
'legislation_'
'intérêts_'
'débat_'
'aspects_'
'ailleurs_'
'] _'
'U_'
'stratégie_'
'progrès_'
'performance_'
'low_'
'land_'
'existe_'
' « _'
'organismes_'
'clients_'
'Web_'
'29_'
'relatives_'
'list_'
'fiscal_'
'ayant_'
'avaient_'
'aider_'
'Groupe_'
'Bush_'
'28_'
'yet_'
'having_'
' ; _'
'va_'
'travaux_'
'tel_'
'st_'
'sites_'
'person_'
'old_'
'donné_'
'besoins_'
'Et_'
'technical_'
'occasion_'
'included_'
'eur_'
'dépenses_'
'views_'
'pourraient_'
'maintenant_'
'ire_'
'governments_'
'found_'
'cultural_'
'Israel_'
'simple_'
'provisions_'
'man_'
'importante_'
'avez_'
'énergie_'
'renforcer_'
'objet_'
'months_'
'internationales_'
'bonne_'
'opportunity_'
'offre_'
'offers_'
'là_'
'ligne_'
'http_'
'davantage_'
'République_'
'Russia_'
'urs_'
'plutôt_'
'once_'
'obtenir_'
'nationale_'
'increased_'
'fonction_'
'financement_'
'March_'
'East_'
'utiliser_'
'strategy_'
'relative_'
'price_'
'led_'
'ic_'
'décisions_'
'capacité_'
'avenir_'
'aucune_'
'://_'
'status_'
'positive_'
'permet_'
'final_'
'exercice_'
'etc_'
'eau_'
'démocratie_'
'durable_'
'amount_'
'additional_'
') (_'
'pourquoi_'
'natural_'
'civil_'
'1990_'
'techniques_'
'plans_'
'immigration_'
'May_'
' — _'
'structure_'
'safety_'
'poverty_'
'early_'
'direct_'
'deuxième_'
'decisions_'
'House_'
'types_'
'test_'
'standards_'
'nombreuses_'
'considered_'
'behalf_'
'October_'
'Court_'
'.”_'
' / _'
'ère_'
'towards_'
'solutions_'
'responsible_'
'permettre_'
'existing_'
'certaines_'
'accordance_'
'1996_'
'strong_'
'significant_'
'régime_'
'risques_'
'really_'
'ous_'
'child_'
'aid_'
'Y_'
'dernière_'
'conflict_'
'always_'
' > _'
'ways_'
'termes_'
'reform_'
'propose_'
'money_'
'jours_'
'jeunes_'
'différents_'
'away_'
'received_'
'participants_'
'office_'
'bar_'
'V_'
'tions_'
'quand_'
'pouvez_'
'personal_'
'mes_'
'intérieur_'
'el_'
'billion_'
'across_'
'South_'
'Bank_'
'Ã_'
'share_'
'programs_'
'partir_'
'liste_'
'interests_'
'home_'
'discussion_'
'benefits_'
'anti_'
'&#_'
'"._'
'tels_'
'source_'
'serious_'
'proposals_'
'procédure_'
'look_'
'forward_'
'companies_'
'amendments_'
'allow_'
'achieve_'
'workers_'
'terrorisme_'
'sources_'
'règles_'
'longer_'
'days_'
'commercial_'
'approche_'
'So_'
'pay_'
'normes_'
'little_'
'likely_'
'involved_'
'develop_'
'commitment_'
'close_'
'adoption_'
'One_'
'First_'
'1995_'
'whole_'
'something_'
'rule_'
'responsabilité_'
'gouvernements_'
'engagement_'
'effort_'
'domestic_'
'court_'
'Treaty_'
'An_'
' !_'
'vertu_'
'sens_'
'principles_'
'offer_'
'lead_'
'ient_'
'four_'
'financière_'
'employment_'
'collaboration_'
'ations_'
'Department_'
'wish_'
'until_'
'request_'
'persons_'
'nationales_'
'montant_'
'knowledge_'
'efficace_'
'déclaration_'
'donner_'
'dernières_'
'Constitution_'
'Comme_'
' «_'
'trouve_'
'rapports_'
'mondial_'
'hand_'
'goods_'
'era_'
'either_'
'difficult_'
'Russie_'
'single_'
'régions_'
'restaurant_'
' - _'
'entreprise_'
'call_'
'banks_'
'annual_'
'55_'
'propre_'
'potential_'
'funding_'
'contributions_'
'choix_'
'Special_'
'ONU_'
'Allemagne_'
'2010_'
'�_'
'terrorism_'
'table_'
'pauvreté_'
'liberté_'
'improve_'
'former_'
'famille_'
'domaines_'
'construction_'
'conformément_'
'concerns_'
'autorités_'
'aurait_'
'November_'
'traitement_'
'though_'
'sustainable_'
'juin_'
'celles_'
'Public_'
'Information_'
'thus_'
'semble_'
'property_'
'prise_'
'practice_'
'play_'
'particulièrement_'
'name_'
'met_'
'location_'
'juillet_'
'discussions_'
'dirigeants_'
'chose_'
'bring_'
'agreements_'
'India_'
'By_'
'rapidement_'
'providing_'
'propositions_'
'industrie_'
'exchange_'
'effect_'
'comment_'
'changement_'
'[_'
'UN_'
'Our_'
'July_'
'éléments_'
'ves_'
'times_'
'start_'
'remain_'
'recommendations_'
'oil_'
'nbsp_'
'nationaux_'
'distribution_'
'democracy_'
'charge_'
'W_'
'Nord_'
'H_'
'Economic_'
'stay_'
'réduire_'
'principe_'
'modern_'
'ls_'
'hommes_'
'balance_'
'Tribunal_'
'April_'
'treatment_'
'response_'
'reduce_'
'moi_'
'mer_'
'located_'
'increasing_'
'heures_'
'co_'
'actuelle_'
'Social_'
'she_'
'septembre_'
'self_'
'poor_'
'octobre_'
'nécessité_'
'novembre_'
'makes_'
'influence_'
'funds_'
'expected_'
'européens_'
'cinq_'
'autant_'
'agencies_'
'Parties_'
'_'
'opposition_'
'infrastructure_'
'going_'
'fundamental_'
'faveur_'
'commun_'
'banques_'
'Division_'
'British_'
'young_'
'texte_'
'study_'
'standard_'
'regarding_'
'quatre_'
'permis_'
'lorsqu_'
'ité_'
'concerning_'
'climate_'
'auprès_'
'Party_'
'Moreover_'
'Chinese_'
'_'
'suivi_'
'rendre_'
'quant_'
'parmi_'
'men_'
'keep_'
'Research_'
'Fund_'
'/ _'
'zones_'
'transition_'
'ted_'
'sure_'
'similar_'
'pense_'
'mai_'
'instrument_'
'deal_'
'consultations_'
'centrale_'
'below_'
'Asia_'
'étude_'
'ting_'
'success_'
'remains_'
'possibilité_'
'opérations_'
'nations_'
'mêmes_'
'living_'
'language_'
'inflation_'
'hours_'
'focus_'
'consider_'
'armes_'
'agriculture_'
'active_'
'Loi_'
'Indeed_'
'themselves_'
'efficacité_'
'dette_'
'constitue_'
'concern_'
'applications_'
'agreed_'
'Organization_'
'Afghanistan_'
'.  _'
'side_'
'réunion_'
'regulation_'
'près_'
'procedures_'
'objectives_'
'limited_'
'known_'
'jamais_'
'item_'
'intégration_'
'image_'
'half_'
'grandes_'
'fs_'
'environ_'
'début_'
'disposition_'
'demand_'
'consultation_'
'augmentation_'
'articles_'
'activité_'
'Some_'
'African_'
'90_'
'80_'
'ty_'
'res_'
'prices_'
'pratique_'
'post_'
'official_'
'hard_'
'democratic_'
'changements_'
'challenges_'
'Obama_'
'After_'
'études_'
'voie_'
'tenu_'
'rural_'
'return_'
'minimum_'
'mars_'
'history_'
'January_'
'Affairs_'
'um_'
'submitted_'
'promote_'
'pratiques_'
'origine_'
'ness_'
'membre_'
'législation_'
'janvier_'
'intention_'
'ings_'
'fournir_'
'financiers_'
'enough_'
'company_'
'clearly_'
'weapons_'
'technique_'
'sorte_'
'range_'
'promouvoir_'
'prises_'
'negotiations_'
'intervention_'
'exploitation_'
'consensus_'
'centres_'
'X_'
'words_'
'simply_'
'ors_'
'meet_'
'light_'
'lack_'
'innovation_'
'grâce_'
'growing_'
'communities_'
'actuellement_'
'absence_'
'45_'
'réduction_'
'representatives_'
'privé_'
'ity_'
'importants_'
'ier_'
'ever_'
'economies_'
'crime_'
'context_'
'assessment_'
'almost_'
'", _'
'vision_'
'vigueur_'
'répondre_'
'relation_'
'milliards_'
'lequel_'
'frais_'
'financières_'
'créer_'
'bank_'
'art_'
'West_'
'Sud_'
'56_'
'   _'
'té_'
'trouver_'
'text_'
'step_'
'représentants_'
'regions_'
'passé_'
'parents_'
'near_'
'devant_'
'soins_'
'seule_'
'require_'
'prevent_'
'permanent_'
'operations_'
'never_'
'left_'
'internal_'
'facilities_'
'evidence_'
'apply_'
'alternative_'
'ago_'
'Ukraine_'
'Plan_'
'Mrs_'
'valeurs_'
'surtout_'
'seen_'
'petit_'
'fins_'
'essential_'
'enfant_'
'double_'
'directly_'
'crimes_'
'aura_'
'ants_'
'agree_'
'Turkey_'
'Report_'
'Members_'
'Director_'
'Conférence_'
'); _'
'  _'
'sociétés_'
'populations_'
'défense_'
'along_'
'Program_'
'Paris_'
'Fonds_'
'Agency_'
' ..._'
'strategic_'
'réponse_'
'recently_'
'reason_'
'produit_'
'procedure_'
'principes_'
'meilleure_'
'effects_'
'coûts_'
'chambre_'
'century_'
'Association_'
'Asie_'
'01_'
'traité_'
'thank_'
'telles_'
'telle_'
'statement_'
'sense_'
'rien_'
'représentant_'
'purpose_'
'principal_'
'parts_'
'outside_'
'nes_'
'model_'
'mandat_'
'excellent_'
'eurs_'
'basic_'
'While_'
'établir_'
'values_'
'train_'
'prepared_'
'os_'
'options_'
'oeuvre_'
'niveaux_'
'garantir_'
'freedom_'
'fort_'
'election_'
'démocratique_'
'currently_'
'contexte_'
'contact_'
'commune_'
'ate_'
'adopté_'
'administrative_'
'Western_'
'Kosovo_'
'Bien_'
'©_'
'top_'
'suivant_'
'seul_'
'representative_'
'product_'
'ires_'
'expressed_'
'exigences_'
'competition_'
'bodies_'
'ar_'
'Section_'
'Israël_'
'took_'
'throughout_'
'requires_'
'obligation_'
'histoire_'
'ex_'
'North_'
'Mission_'
'How_'
'English_'
'travailleurs_'
'surveillance_'
'space_'
'situations_'
'secteurs_'
'school_'
'run_'
'reported_'
'pu_'
'priority_'
'modèle_'
'gentlemen_'
'différentes_'
'corruption_'
'condition_'
'civile_'
'atteindre_'
'applicable_'
'accords_'
'Pakistan_'
'HIV_'
'élections_'
'welcome_'
'spécial_'
'revenu_'
'matters_'
'internationaux_'
'idée_'
'faible_'
'effets_'
'design_'
'communautaire_'
'appui_'
'web_'
'ure_'
'toutefois_'
'supported_'
'réseau_'
'quite_'
'previous_'
'option_'
'militaire_'
'joint_'
'higher_'
'Gouvernement_'
'Code_'
'élaboration_'
'stability_'
'receive_'
'quelque_'
'prévention_'
'juridique_'
'investissement_'
'includes_'
'financier_'
'event_'
'euros_'
'establishment_'
'equipment_'
'code_'
'clairement_'
'bureau_'
'argent_'
'analysis_'
'Tout_'
'Central_'
'things_'
'siècle_'
'ront_'
'principaux_'
'majority_'
'live_'
'ia_'
'follow_'
'elections_'
'doing_'
'directement_'
'communications_'
'chance_'
'Cour_'
'): _'
'turn_'
'soutenir_'
'preuve_'
'phase_'
'nce_'
'kind_'
'created_'
'consideration_'
'conclusions_'
'approved_'
'ance_'
'York_'
'week_'
'ten_'
'spending_'
'recommandations_'
'quelle_'
'pouvons_'
'planning_'
'paid_'
'org_'
'opportunities_'
'material_'
'lois_'
'haut_'
'existence_'
'establish_'
'credit_'
'complete_'
'Non_'
'Banque_'
'v_'
'seems_'
'sanctions_'
'rise_'
'publiques_'
'protect_'
'organization_'
'maximum_'
'majorité_'
'gender_'
'emplois_'
'content_'
'concurrence_'
'avril_'
'addressed_'
'act_'
'Saint_'
'Palestinian_'
'Other_'
'Institute_'
'Action_'
'whose_'
'récemment_'
'reasons_'
'publics_'
'nation_'
'meetings_'
'leadership_'
'investissements_'
'implement_'
'destruction_'
'concept_'
'coming_'
'activity_'
'according_'
'Agreement_'
'57_'
'02_'
'“_'
'wide_'
'séance_'
'stable_'
'réforme_'
'rapide_'
'provision_'
'principle_'
'partenaires_'
'nts_'
'lot_'
'grands_'
'federal_'
'expérience_'
'contained_'
'ability_'
'Working_'
'University_'
'TV_'
'Italy_'
'élevé_'
'victimes_'
'true_'
'traditional_'
'show_'
'province_'
'propres_'
'peuple_'
'individuals_'
'dès_'
'demander_'
'conséquences_'
'conclusion_'
'Policy_'
'propriété_'
'parti_'
'négociations_'
'noted_'
'net_'
'month_'
'media_'
'ir_'
'industrial_'
'feel_'
'designed_'
'carried_'
'budgétaire_'
'anglais_'
'Japon_'
'High_'
'ES_'
'Commissaire_'
'200_'
'1994_'
'◦ _'
'via_'
'technologie_'
'supply_'
'risks_'
'later_'
'km_'
'increasingly_'
'external_'
'essentiel_'
'déclaré_'
'disponibles_'
'crucial_'
'consommateurs_'
'capacités_'
'although_'
'German_'
'February_'
',” _'
'+_'
' % _'
'visit_'
'succès_'
'successful_'
'stabilité_'
'sociaux_'
'réformes_'
'protéger_'
'propos_'
'practices_'
'mean_'
'leading_'
'importe_'
'encourage_'
'death_'
'ch_'
'build_'
'analyse_'
'X'
'Women_'
'Irak_'
'Inde_'
'Cependant_'
'AIDS_'
'« _'
'tenir_'
'objective_'
'message_'
'loin_'
'juste_'
'heart_'
'doute_'
'difficile_'
'connection_'
'conflit_'
'committee_'
'committed_'
'bles_'
'avantages_'
'associated_'
'amélioration_'
'agricultural_'
'adhésion_'
'K_'
'500_'
'35_'
'vu_'
'union_'
'ton_'
'requested_'
'regulations_'
'presented_'
'libre_'
'ladies_'
'integration_'
'factors_'
'enseignement_'
'délégation_'
'drug_'
'dispose_'
'delegation_'
'côté_'
'coût_'
'assets_'
'appel_'
'américain_'
'Of_'
'Ministère_'
'Finally_'
'Depuis_'
'Cet_'
'uniquement_'
'understanding_'
'regime_'
'reference_'
'partners_'
'na_'
'manque_'
'mandate_'
'mal_'
'labour_'
'institution_'
'game_'
'events_'
'demandes_'
'confiance_'
'breakfast_'
'américaine_'
'éviter_'
'volonté_'
'violations_'
'ue_'
'transports_'
'sent_'
'revenus_'
'procédures_'
'pauvres_'
'move_'
'liés_'
'humanitarian_'
'gens_'
'decided_'
'continued_'
'causes_'
'biens_'
'benefit_'
'aware_'
'assurance_'
'Avec_'
'Arab_'
'=_'
'70_'
'structures_'
'strengthen_'
'mode_'
'jobs_'
'images_'
'estime_'
'dollar_'
'distance_'
'conséquent_'
'abord_'
'Management_'
'style_'
'station_'
'science_'
'résultat_'
'rest_'
'présidence_'
'monitoring_'
'job_'
'jeu_'
'importantes_'
'fight_'
'divers_'
'cycle_'
'août_'
'Since_'
'Rapporteur_'
'Premier_'
'Notre_'
'M'
'Korea_'
'Business_'
' ‘_'
'try_'
'taxes_'
'tandis_'
'takes_'
'référence_'
'reach_'
'proposé_'
'perspective_'
'passer_'
'ling_'
'ique_'
'hold_'
'finance_'
'entrée_'
'ask_'
'apporter_'
'appliquer_'
'ally_'
'achieved_'
'Room_'
'EUR_'
'» _'
'vis_'
'understand_'
'sociales_'
'restrictions_'
'responsables_'
'reduction_'
'publication_'
'original_'
'officials_'
'gouvernementales_'
'gas_'
'français_'
'employés_'
'crédit_'
'comes_'
'circumstances_'
'board_'
'agents_'
'Or_'
'Law_'
'Israeli_'
'échange_'
'uses_'
'users_'
'troisième_'
'steps_'
'renforcement_'
'record_'
'raisons_'
'présenté_'
'perhaps_'
'lower_'
'll_'
'guidelines_'
'guide_'
'février_'
'evaluation_'
'difficultés_'
'contribute_'
'consommation_'
'conférence_'
'conflits_'
'collègues_'
'annexe_'
'aire_'
'affected_'
'Such_'
'Justice_'
'GDP_'
'58_'
'32_'
'1992_'
'works_'
'votes_'
'réalité_'
'rich_'
'quel_'
'pêche_'
'puisse_'
'provincial_'
'monétaire_'
'locaux_'
'idea_'
'exécution_'
'body_'
'bas_'
'asked_'
'allowed_'
'actuel_'
'accept_'
'Toutefois_'
'75_'
'1er_'
' $ _'
'émissions_'
'économies_'
'   - _'
'w_'
'ter_'
'team_'
'studies_'
'stated_'
'reporting_'
'referred_'
'purposes_'
'processes_'
'permettant_'
'ner_'
'let_'
'internet_'
'indeed_'
'impossible_'
'forms_'
'européennes_'
'eaux_'
'disponible_'
'creation_'
'comprehensive_'
'border_'
'authority_'
'arrangements_'
'actually_'
'War_'
'Note_'
'Middle_'
'L'
'III_'
'Financial_'
'CN_'
'August_'
'Après_'
' », _'
' . _'
'torture_'
'resolutions_'
'représente_'
'produced_'
'pied_'
'participer_'
'ministère_'
'issued_'
'guarantee_'
'gc_'
'expression_'
'esprit_'
'dix_'
'cependant_'
'amendement_'
'added_'
'Many_'
'échelle_'
'sud_'
'payment_'
'nucléaire_'
'mind_'
'meilleur_'
'laws_'
'huge_'
'extent_'
'export_'
'espace_'
'equal_'
'consequences_'
'conference_'
'choses_'
'chinois_'
'candidats_'
'ad_'
'Trade_'
'THE_'
'Spain_'
'Madame_'
'John_'
'Inc_'
'From_'
'During_'
'36_'
'33_'
'03_'
'tiers_'
'réalisation_'
'red_'
'reached_'
'rait_'
'offrir_'
'nothing_'
'network_'
'milieu_'
'independent_'
'documentation_'
'demandé_'
'claims_'
'applied_'
'ale_'
'Turquie_'
'Russian_'
'Forum_'
'Enfin_'
'34_'
'veut_'
'stage_'
'ss_'
'simplement_'
'semaine_'
'réunions_'
'régional_'
'route_'
'porte_'
'lesquels_'
'ges_'
'enjoy_'
'décidé_'
'ds_'
'convention_'
'challenge_'
'carte_'
'big_'
'beyond_'
'Windows_'
'Rapport_'
'Now_'
'Although_'
' » _'
'utilisateurs_'
'travel_'
'transfer_'
'threat_'
'salle_'
'relating_'
'possibility_'
'monetary_'
'mentioned_'
'initial_'
'improved_'
'highly_'
'enable_'
'diverses_'
'dessus_'
'critical_'
'contract_'
'compliance_'
'class_'
'average_'
'USA_'
'Tous_'
'Air_'
'49_'
'youth_'
'ues_'
'students_'
'size_'
'situé_'
'shown_'
'recours_'
'présenter_'
'poste_'
'patients_'
'overall_'
'mechanisms_'
'largest_'
'file_'
'femme_'
'favour_'
'everything_'
'employees_'
'développer_'
'critères_'
'compétences_'
'comprendre_'
'comfortable_'
'chef_'
'Force_'
'Ainsi_'
'Add_'
'user_'
'terrain_'
'schools_'
'priorities_'
'primary_'
'presque_'
'operation_'
'online_'
'offices_'
'introduction_'
'ine_'
'house_'
'heure_'
'ground_'
'examiner_'
'efficaces_'
'easy_'
'connaissances_'
'canadien_'
'beginning_'
'aimed_'
'Selon_'
'Regional_'
'Québec_'
'sûr_'
'strategies_'
'stop_'
'statut_'
'soon_'
'reçu_'
'reforms_'
'reality_'
'présence_'
'press_'
'outcome_'
'modifications_'
'methods_'
'langue_'
'indiqué_'
'farmers_'
'entitled_'
'entire_'
'emissions_'
'donne_'
'devenir_'
'cy_'
'creating_'
'contains_'
'compensation_'
'combat_'
'choose_'
'carry_'
'agir_'
'acceptable_'
'ables_'
'Protocol_'
'Foreign_'
'Congo_'
'* _'
'égalité_'
'usage_'
'urgence_'
'travers_'
'substances_'
'statements_'
'signifie_'
'scale_'
'positions_'
'package_'
'militaires_'
'm'
'legislative_'
'juridiques_'
'identified_'
'families_'
'extremely_'
'entendu_'
'ens_'
'don_'
'directives_'
'derniers_'
'contenu_'
'charges_'
'canadienne_'
'became_'
'S'
'OF_'
'âge_'
'tour_'
'tard_'
'série_'
'supplémentaires_'
'suit_'
'setting_'
'resource_'
'relatif_'
'pressure_'
'pression_'
'notes_'
'missions_'
'liées_'
'licence_'
'jouer_'
'identify_'
'ian_'
'goals_'
'ging_'
'fut_'
'frontières_'
'faciliter_'
'déterminer_'
'convient_'
'came_'
'biais_'
'awareness_'
'appear_'
'américains_'
'amendements_'
'Secretariat_'
'Prime_'
'Déclaration_'
'évolution_'
'équipe_'
'vrai_'
'voted_'
'satisfaction_'
'puis_'
'ouverture_'
'méthodes_'
'materials_'
'mail_'
'enlargement_'
'elements_'
'da_'
'criminal_'
'continues_'
'consumption_'
'constitution_'
'chacun_'
'VIH_'
'Summit_'
'St_'
'Presidency_'
'My_'
'Est_'
'Canadiens_'
'59_'
'54_'
'39_'
' »._'
'véritable_'
'shows_'
'road_'
'relationship_'
'prévu_'
'physical_'
'pages_'
'nord_'
'nor_'
'médias_'
'maintain_'
'locales_'
'lives_'
'liens_'
'insurance_'
'implemented_'
'fall_'
'failed_'
'exception_'
'défis_'
'disease_'
'defined_'
'créé_'
'continuer_'
'consumers_'
'confidence_'
'comptes_'
'comprend_'
'completed_'
'communautés_'
'comité_'
'brought_'
'Même_'
'More_'
'Directive_'
'vraiment_'
'vital_'
'territoire_'
'species_'
'sound_'
'seraient_'
'scope_'
'moyenne_'
'menace_'
'leave_'
'ke_'
'goal_'
'forte_'
'figure_'
'features_'
'ensuite_'
'durée_'
'despite_'
'currency_'
'computer_'
'complex_'
'commerciaux_'
'claim_'
'V'
'Ottawa_'
'Most_'
'Governments_'
'Food_'
'City_'
'51_'
'300_'
' -- _'
'venir_'
'utilisé_'
'suivre_'
'stratégique_'
'scientific_'
'recognition_'
'ratification_'
'probablement_'
'priorités_'
'prevention_'
'portant_'
'politics_'
'manner_'
'longtemps_'
'improving_'
'humains_'
'fonctions_'
'financing_'
'efficient_'
'désormais_'
'départ_'
'details_'
'der_'
'continent_'
'conduct_'
'commissaire_'
'calls_'
'armée_'
'arms_'
'answer_'
'WP_'
'Portugal_'
'Orient_'
'Latin_'
'Global_'
'Even_'
'Environment_'
'Administration_'
'AC_'
'1991_'
'1'
'voix_'
'undertaken_'
'statistiques_'
'series_'
'ries_'
'remercier_'
'profit_'
'presse_'
'places_'
'peuples_'
'medical_'
'massive_'
'maladies_'
'maintien_'
'loss_'
'institutional_'
'governmental_'
'enquête_'
'emerging_'
'effectively_'
'earlier_'
'cover_'
'constituent_'
'clean_'
'chargé_'
'certainly_'
'beautiful_'
'attitude_'
'ated_'
'assez_'
'ante_'
'amendment_'
'add_'
'acts_'
'actes_'
'Table_'
'Plus_'
'N'
'Ireland_'
'His_'
'Dr_'
'Date_'
'@_'
'1993_'
'06_'
'–_'
'étrangère_'
'étrangers_'
'strengthening_'
'skills_'
'serve_'
'sectors_'
'scientifiques_'
'sation_'
'satellite_'
'résoudre_'
'réserve_'
'régionaux_'
'regular_'
'read_'
'puissance_'
'parvenir_'
'mécanismes_'
'maintenir_'
'lignes_'
'leader_'
'late_'
'languages_'
'ism_'
'intended_'
'ii_'
'governance_'
'format_'
'faisant_'
'failure_'
'dû_'
'damage_'
'choice_'
'began_'
'accepted_'
'Project_'
'Kingdom_'
'I'
'99_'
' :_'
'unemployment_'
'thing_'
'régionales_'
'responsable_'
'radio_'
'produce_'
'peoples_'
'peine_'
'passe_'
'news_'
'links_'
'limit_'
'installations_'
'identification_'
'gain_'
'ful_'
'differences_'
'classe_'
'chômage_'
'bad_'
'adequate_'
'Under_'
'Royaume_'
'Ministry_'
'Gaza_'
'Federal_'
'Cuba_'
'Aboriginal_'
'”, _'
'ying_'
'virus_'
'victims_'
'useful_'
'ures_'
'town_'
'tendance_'
'suivants_'
'soumis_'
'software_'
'reviews_'
'relativement_'
'relatifs_'
'quickly_'
'powers_'
'pose_'
'pollution_'
'planification_'
'petits_'
'payments_'
'movement_'
'ive_'
'index_'
'humaines_'
'genre_'
'gaz_'
'ding_'
'contient_'
'collective_'
'book_'
'auteur_'
'accepter_'
'Santé_'
'Initiative_'
'Elles_'
'Egypt_'
'Certains_'
'05_'
'04_'
'”._'
'évaluer_'
'établissements_'
'ères_'
'ze_'
'whom_'
'tools_'
'réaliser_'
'plein_'
'mort_'
'moral_'
'maladie_'
'interventions_'
'industries_'
'historical_'
'giving_'
'friendly_'
'film_'
'facteurs_'
'expert_'
'expansion_'
'entry_'
'ensuring_'
'directeur_'
'determine_'
'decline_'
'criteria_'
'consumer_'
'clair_'
'ancien_'
'aim_'
'Uni_'
'Sous_'
'Point_'
'Please_'
'Madam_'
'Charter_'
'Chairman_'
'Brazil_'
'43_'
'37_'
'2'
'étrangères_'
'établi_'
'élément_'
'variety_'
'seem_'
'recognized_'
'priorité_'
'prend_'
'petites_'
'paper_'
'night_'
'ks_'
'invite_'
'immediately_'
'hausse_'
'formes_'
'facilitate_'
'extension_'
'exercise_'
'espère_'
'déclarations_'
'duty_'
'dimension_'
'crises_'
'competitive_'
'caused_'
'cal_'
'animal_'
'allows_'
'adopter_'
'Today_'
'Safety_'
'Q'
'Protection_'
'Mexico_'
'C'
'42_'
'1980_'
'vente_'
'travailler_'
'trait_'
'started_'
'speak_'
'ser_'
'search_'
'réglementation_'
'reflect_'
'professional_'
'prochaine_'
'parle_'
'ouverte_'
'obstacles_'
'nucléaires_'
'lesquelles_'
'largement_'
'interne_'
'généralement_'
'fond_'
'everyone_'
'entier_'
'durant_'
'disarmament_'
'cultures_'
'comments_'
'closed_'
'campaign_'
'advance_'
'adopt_'
'accent_'
'Second_'
'PIB_'
'Ms_'
'LA_'
'Grande_'
'Etat_'
'Directeur_'
'Declaration_'
'Agence_'
' " _'
'écrit_'
'website_'
'vont_'
'vient_'
'transparence_'
'tradition_'
'territory_'
'puissent_'
'published_'
'payer_'
'parler_'
'méthode_'
'médicaments_'
'mass_'
'link_'
'integrated_'
'humaine_'
'fonctionnement_'
'delivery_'
'contrat_'
'caractère_'
'capable_'
'cancer_'
'campagne_'
'begin_'
'UNESCO_'
'R'
'Part_'
'Let_'
'H'
'ET_'
';&#_'
'événements_'
'époque_'
' ?_'
'weeks_'
'urgent_'
'stocks_'
'servir_'
'safe_'
'restaurants_'
'principales_'
'practical_'
'pension_'
'participate_'
'marchandises_'
'join_'
'illegal_'
'grave_'
'globale_'
'facile_'
'efficiency_'
'default_'
'danger_'
'core_'
'conséquence_'
'conservation_'
'completely_'
'communes_'
'client_'
'autorité_'
'association_'
'armed_'
'anything_'
'accessible_'
'Mesdames_'
'Espagne_'
'Each_'
'Comment_'
'Accord_'
'). _'
'wrong_'
'vise_'
'transmission_'
't'
'supporting_'
'sexual_'
'régionale_'
'réception_'
'release_'
'regulatory_'
'recommended_'
'prévoit_'
'procès_'
'prior_'
'principalement_'
'pre_'
'postes_'
'possibilités_'
'multi_'
'mines_'
'menu_'
'membership_'
'medium_'
'longue_'
'limits_'
'indicated_'
'incidence_'
'impression_'
'implementing_'
'fonctionnaires_'
'fear_'
'faits_'
'elected_'
'discussed_'
'developments_'
'devait_'
'cœur_'
'cross_'
'avoid_'
'announced_'
'advantage_'
'T'
'Regulation_'
'Présidente_'
'K'
'Executive_'
'Communauté_'
'According_'
'44_'
') '
'élargissement_'
'zed_'
'vehicle_'
'v'
'transactions_'
'totale_'
'thought_'
'target_'
'séjour_'
'substance_'
'relatively_'
'records_'
'pétrole_'
'pourra_'
'pleinement_'
'placed_'
'partnership_'
'operating_'
'moitié_'
'informed_'
'housing_'
'function_'
'fondamentaux_'
'familles_'
'fair_'
'exist_'
'ethnic_'
'définition_'
'determined_'
'decade_'
'ard_'
'accueil_'
'Regulations_'
'Messieurs_'
'Lisbon_'
'Italie_'
'God_'
'FAO_'
'Education_'
'EC_'
'Booking_'
': (_'
'95_'
'étoiles_'
'écoles_'
'ème_'
'utilisés_'
'télévision_'
'traiter_'
'tenue_'
'task_'
'surface_'
'stratégies_'
'spécifiques_'
'sort_'
'sommet_'
'ship_'
'served_'
'seeking_'
'sea_'
'responsabilités_'
'provinces_'
'probably_'
'petite_'
'particulière_'
'parfois_'
'ms_'
'lle_'
'iques_'
'infrastructures_'
'ideas_'
'he'
'followed_'
'files_'
'eurozone_'
'envers_'
'encourager_'
'emergency_'
'effectiveness_'
'described_'
'decades_'
'customers_'
'cs_'
'climatique_'
'ck_'
'bus_'
'U'
'Rome_'
'People_'
'P'
'Lorsque_'
'Islamic_'
'Description_'
'D'
'800_'
'48_'
'étranger_'
'yeux_'
'telephone_'
'sport_'
'signed_'
'secrétariat_'
'rendu_'
'religion_'
'reduced_'
'proper_'
'port_'
'please_'
'perspectives_'
'opinions_'
'ongoing_'
'n'
'music_'
'mouvement_'
'moderne_'
'measure_'
'ma'
'inter_'
'iers_'
'guests_'
'ga_'
'exports_'
'engagements_'
'easily_'
'difference_'
'degree_'
'cut_'
'conscience_'
'conception_'
'check_'
'aspect_'
'adresse_'
'accroître_'
'Yet_'
'Sur_'
'Règlement_'
'Rooms_'
'Al_'
'1989_'
'. - (_'
', '
'´_'
'word_'
'walk_'
'veiller_'
'utile_'
'tribunal_'
'transparency_'
'tic_'
'ta_'
'submit_'
'stress_'
'situated_'
'sign_'
'semaines_'
'seek_'
'saying_'
'ready_'
'race_'
'premières_'
'partis_'
'parking_'
'mots_'
'mondialisation_'
'lines_'
'interested_'
'indispensable_'
'firms_'
'finances_'
'famous_'
'express_'
'délai_'
'detailed_'
'continuing_'
'consistent_'
'compter_'
'commerciales_'
'certaine_'
'alone_'
'agricole_'
'adoptée_'
'achieving_'
'Poland_'
'Moyen_'
'Hamas_'
'Furthermore_'
'E'
'52_'
'47_'
'... _'
'."_'
', "_'
'électronique_'
'voulons_'
'voting_'
'violation_'
'toward_'
'tient_'
'terrorist_'
'terre_'
'supports_'
'sida_'
'retour_'
'prêts_'
'presence_'
'modification_'
'ministres_'
'method_'
'matériel_'
'malgré_'
'lien_'
'déjeuner_'
'consiste_'
'conducted_'
'commissions_'
'chefs_'
'chapitre_'
'card_'
'bed_'
'associations_'
'argument_'
'approval_'
'agent_'
']_'
'Son_'
'ON_'
'Italian_'
'Irlande_'
'Institut_'
'Greece_'
'EN_'
'Democratic_'
'Canadians_'
'Asian_'
'96_'
'07_'
'  _'
'élaborer_'
'xi'
'ties_'
'terres_'
'taille_'
'stock_'
'star_'
'souhaite_'
'règlements_'
'promoting_'
'professionnels_'
'president_'
'pourrez_'
'popular_'
'planned_'
'permettent_'
'p'
'operational_'
'offered_'
'occupation_'
'observations_'
'normal_'
'mises_'
'judicial_'
'granted_'
'forced_'
'fisheries_'
'enhance_'
'eligible_'
'draw_'
'di_'
'contraire_'
'compromis_'
'communautaires_'
'catégorie_'
'becoming_'
'alinéa_'
'accession_'
'San_'
'Microsoft_'
'Haut_'
'George_'
'G'
'400_'
'38_'
'%._'
'tête_'
'trust_'
'sex_'
'sale_'
'réfugiés_'
'rising_'
'respecter_'
'reducing_'
'recovery_'
'recevoir_'
'publications_'
'produire_'
'ordinateur_'
'opening_'
'naturelles_'
'looking_'
'items_'
'installation_'
'increases_'
'faite_'
'equality_'
'drive_'
'decide_'
'dealing_'
'contribuer_'
'contain_'
'commitments_'
'collection_'
'arrive_'
'ais_'
'advice_'
'advanced_'
'Pourtant_'
'Japanese_'
'Great_'
'Debian_'
'Américains_'
'Advisory_'
'65_'
'," _'
'èrent_'
'zation_'
'written_'
'writing_'
'w'
'volume_'
'universal_'
'transfert_'
'totalement_'
'told_'
'terroristes_'
'subventions_'
'stand_'
'refugees_'
'reconnaissance_'
'quoi_'
'proximité_'
'procéder_'
'pouvait_'
'ping_'
'personnels_'
'organisme_'
'observer_'
'modifier_'
'mobile_'
'langues_'
'lancer_'
'j'
'instance_'
'immigrants_'
'identity_'
'historique_'
'head_'
'goes_'
'generally_'
'garde_'
'fédérale_'
'fuel_'
'forum_'
'ements_'
'electronic_'
'difficulties_'
'cra'
'corps_'
'commencer_'
'budgets_'
'alimentaire_'
'Washington_'
'Vice_'
'Spanish_'
'Review_'
'Representative_'
'Mar'
'J'
'Is_'
'Annex_'
'Alors_'
'Alberta_'
'$_'
'   . _'
'worldwide_'
'vulnerable_'
'voisins_'
'video_'
'structural_'
'stronger_'
'sharing_'
'shared_'
'secretariat_'
'scientifique_'
'réalisés_'
'respond_'
'recherches_'
'reading_'
'raised_'
'précisément_'
'poursuivre_'
'potentiel_'
'nice_'
'networks_'
'musique_'
'multilateral_'
'logiciel_'
'lettre_'
'learning_'
'largely_'
'introduced_'
'hour_'
'gouvernance_'
'garantie_'
'fichiers_'
'f'
'extérieur_'
'exportations_'
'enterprises_'
'délégations_'
'delà_'
'corporate_'
'consolidation_'
'considerable_'
'conseil_'
'compromise_'
'competitiveness_'
'clé_'
'circulation_'
'cinquante_'
'capitaux_'
'budgétaires_'
'borders_'
'avantage_'
'auront_'
'architecture_'
'appelle_'
'appeal_'
'animaux_'
'ajouter_'
'aires_'
'ahead_'
'achat_'
'accident_'
'Y'
'TION_'
'Paul_'
'Panel_'
'PC_'
'Not_'
'Meeting_'
'LE_'
'Hi'
'Framework_'
'CE_'
'CD_'
'Also_'
'étape_'
'É'
'x'
'won_'
'véhicules_'
'unless_'
'temporary_'
'survey_'
'supérieur_'
'supplémentaire_'
'suivante_'
'suffisamment_'
'sub_'
'speed_'
'sometimes_'
'separate_'
'sentiment_'
'sales_'
'résolutions_'
'requests_'
'pouvoirs_'
'percent_'
'orientation_'
'organized_'
'neither_'
'mécanisme_'
'matières_'
'letter_'
'invited_'
'individus_'
'immediate_'
'ial_'
'haute_'
'hands_'
'fera_'
'feature_'
'expertise_'
'expect_'
'enter_'
'empêcher_'
'députés_'
'déficit_'
'dossier_'
'diversity_'
'dessous_'
'departments_'
'del_'
'cuisine_'
'considère_'
'conseils_'
'compared_'
'communiquer_'
'commencé_'
'chemin_'
'chances_'
'catégories_'
'businesses_'
'autochtones_'
'auquel_'
'approbation_'
'appears_'
'UNICEF_'
'Two_'
'System_'
'She_'
'Its_'
'Go'
'Europeans_'
'46_'
'. _'
');_'
'voté_'
'unité_'
'trouvent_'
'traitements_'
'trafic_'
'tiens_'
'suggested_'
'seven_'
'rester_'
'responsibilities_'
'reprise_'
'privée_'
'prison_'
'pleased_'
'players_'
'partage_'
'parole_'
'offering_'
'obtained_'
'manage_'
'lieux_'
'larger_'
'k'
'instead_'
'innovative_'
'historic_'
'fédéral_'
'front_'
'ended_'
'discuss_'
'definition_'
'deep_'
'conventions_'
'consultatif_'
'composition_'
'commentaires_'
'closely_'
'cation_'
'candidate_'
'behind_'
'baisse_'
'attendre_'
'attacks_'
'annex_'
'als_'
'actuelles_'
'actifs_'
'WIPO_'
'London_'
'Lisbonne_'
'Jean_'
'Guide_'
'B'
'Argentina_'
'Amendment_'
'Alliance_'
'--_'
' = _'
'tirer_'
'starting_'
'ring_'
'recettes_'
'reasonable_'
'rapid_'
'pro'
'pourtant_'
'partout_'
'ni'
'minorités_'
'meilleurs_'
'linked_'
'limites_'
'helped_'
'follows_'
'figures_'
'expenditures_'
'erait_'
'entièrement_'
'enfin_'
'd'
'copy_'
'choisir_'
'aller_'
'agency_'
'abuse_'
'W'
'Street_'
'Palestine_'
'Only_'
'NGOs_'
'FMI_'
'F'
'Dieu_'
'Children_'
'Avant_'
'53_'
'1872_'
', “_'
' : « _'
' -_'
'échanges_'
'worked_'
'visite_'
'villes_'
'treaty_'
'thousands_'
'tell_'
'suivantes_'
'substantial_'
'stakeholders_'
'spéciale_'
'sessions_'
'réponses_'
'représentent_'
'pursuant_'
'présentation_'
'proceedings_'
'partenariat_'
'otherwise_'
'ol_'
'mark_'
'maison_'
'lutter_'
'latest_'
'ist_'
'involving_'
'idées_'
'ideal_'
'gains_'
'friends_'
'fifty_'
'facilement_'
'ey_'
'examine_'
'ely_'
'définir_'
'crois_'
'continuent_'
'cities_'
'center_'
'carbon_'
'augmenter_'
'appuyer_'
'alliance_'
'acteurs_'
'Université_'
'Timor_'
'Strategy_'
'Saddam_'
'PC'
'Nouvelle_'
'Industry_'
'DES_'
'Columbia_'
'Aujourd_'
'Americans_'
'Agriculture_'
'5'
'0'
'élevés_'
' »._'
'unies_'
'twenty_'
'trying_'
'tool_'
'spread_'
'speaking_'
'souligner_'
'soi_'
'siège_'
'sing_'
'revised_'
'religious_'
'relief_'
'released_'
'reconstruction_'
'prochain_'
'perte_'
'paiement_'
'organisé_'
'organes_'
'nte_'
'nearly_'
'montre_'
'mauvais_'
'limite_'
'impôt_'
'implications_'
'id_'
'gros_'
'fund_'
'fast_'
'extrêmement_'
'exprimer_'
'ence_'
'employee_'
'educational_'
'doubt_'
'diseases_'
'deficit_'
'ded_'
'daily_'
'controls_'
'considéré_'
'conduit_'
'compétitivité_'
'certainement_'
'bureaux_'
'atmosphere_'
'amis_'
'aliments_'
'ages_'
'\\_'
'Traité_'
'Toronto_'
'Support_'
'Romania_'
'Q_'
'OR_'
'Netherlands_'
'Millennium_'
'Forces_'
'Document_'
'Corporation_'
'Church_'
'Christian_'
'Ceci_'
'CI'
'1988_'
'09_'
') - _'
'êtes_'
'équilibre_'
'voluntary_'
'transparent_'
'susceptibles_'
'suggest_'
'spirit_'
'semblent_'
'sait_'
'round_'
'rend_'
'registered_'
'recommande_'
'recognize_'
'quot_'
'purchase_'
'properly_'
'probable_'
'preparation_'
'pièces_'
'officers_'
'nouvel_'
'ministères_'
'meilleures_'
'maintenance_'
'lly_'
'indépendance_'
'improvement_'
'helpful_'
'fortement_'
'formal_'
'forest_'
'flux_'
'fish_'
'faites_'
'facing_'
'enquêtes_'
'elsewhere_'
'discours_'
'diplomatic_'
'devront_'
'determination_'
'connaissance_'
'conclure_'
'conclu_'
'compétence_'
'chercheurs_'
'built_'
'bonnes_'
'ary_'
'arabe_'
'allowing_'
'agricoles_'
'agissant_'
'Therefore_'
'OMC_'
'MA'
'Kyoto_'
'Grand_'
'David_'
'Corée_'
'Control_'
'Brésil_'
'Berlin_'
'Authority_'
'AND_'
'? _'
'vingt_'
'village_'
'utilisées_'
'urban_'
'update_'
'tribunaux_'
'testing_'
'stratégiques_'
'southern_'
'sides_'
'secure_'
'savings_'
's'
'producteurs_'
'presidential_'
'politicians_'
'photo_'
'phone_'
'permettra_'
'perfect_'
'negative_'
'mètres_'
'mutual_'
'morning_'
'mm_'
'migrants_'
'mental_'
'managed_'
'l'
'judiciaire_'
'investments_'
'intellectuelle_'
'inside_'
'imposed_'
'identité_'
'himself_'
'grow_'
'gave_'
'g'
'fire_'
'faudra_'
'establishing_'
'equipped_'
'employer_'
'eight_'
'défi_'
'dossiers_'
'disaster_'
'digital_'
'destination_'
'demands_'
'contracts_'
'connu_'
'confirmed_'
'changed_'
'caractéristiques_'
'britannique_'
'bilateral_'
'auxquels_'
'autour_'
'auraient_'
'attempt_'
'approvisionnement_'
'applies_'
'affaire_'
'actual_'
'Use_'
'RO'
'Quand_'
'Protocole_'
'OECD_'
'Ni'
'Muslim_'
'Membres_'
'Malgré_'
'Mac'
'Inter'
'Here_'
'CA'
'08_'
''._'
'équipements_'
'énergétique_'
'zing_'
'welcomed_'
'wealth_'
'utilisateur_'
'tâche_'
'targets_'
'ste_'
'solidarité_'
'sme_'
'réalisé_'
'règle_'
'rice_'
'revolution_'
'remained_'
'registration_'
'reconnaître_'
'préserver_'
'provenant_'
'profiter_'
'proche_'
'principale_'
'pool_'
'pass_'
'parliamentary_'
'notion_'
'namely_'
'mobilité_'
'mis'
'manifestations_'
'losses_'
'looks_'
'listed_'
'limiter_'
'ko'
'fondamentales_'
'faudrait_'
'extensive_'
'exposition_'
'e'
'défaut_'
'drugs_'
'diversité_'
'contribué_'
'contrast_'
'comportement_'
'cher_'
'camp_'
'broad_'
'alternatives_'
'addressing_'
'accéder_'
'accorder_'
'accommodation_'
'Voici_'
'Sea_'
'SO'
'Resources_'
'RE'
'Que_'
'Pacific_'
'Over_'
'Ministers_'
'La'
'LA'
'Indian_'
'Genève_'
'Geneva_'
'Federation_'
'FI'
'Britain_'
'41_'
'150_'
') _'
'étudiants_'
'étapes_'
'éliminer_'
'école_'
'ça_'
'waste_'
'veulent_'
'vaste_'
'unable_'
'trial_'
'traffic_'
'traditions_'
'tonnes_'
'thinking_'
'thanks_'
'tableau_'
'sujets_'
'statistics_'
'specifically_'
'send_'
'selected_'
'sciences_'
'réserves_'
'réseaux_'
'rendement_'
'r'
'publié_'
'prospects_'
'powerful_'
'para_'
'outils_'
'oral_'
'numbers_'
'migration_'
'messages_'
'mechanism_'
'lancé_'
'labor_'
'kept_'
'intellectual_'
'inspection_'
'informal_'
'indigenous_'
'indicators_'
'humanitaire_'
'fourth_'
'fondée_'
'fishing_'
'fer_'
'favorable_'
'faith_'
'factor_'
'estimates_'
'enregistrement_'
'donateurs_'
'contacts_'
'considération_'
'connaître_'
'conflicts_'
'candidates_'
'bois_'
'bases_'
'availability_'
'assist_'
'approuvé_'
'Z'
'Why_'
'Third_'
'Ta'
'Sierra_'
'Ri'
'Restaurant_'
'Quebec_'
'Ouest_'
'NO'
'Mo'
'Mexique_'
'ME'
'IC'
'Costa_'
'Both_'
'Another_'
'Al'
'97_'
'win_'
'u'
'téléphone_'
'thereby_'
'specified_'
'sol_'
'signature_'
'sensitive_'
'récente_'
'requirement_'
'regards_'
'refer_'
'reconnu_'
'reception_'
'quement_'
'quatrième_'
'quarter_'
'prêt_'
'prévues_'
'proportion_'
'prochaines_'
'primarily_'
'pourcentage_'
'planète_'
'pertes_'
'parlementaire_'
'paragraphs_'
'origin_'
'numerous_'
'names_'
'modèles_'
'lost_'
'libertés_'
'ler_'
'lay_'
'interdiction_'
'indique_'
'independence_'
'imposer_'
'imports_'
'humain_'
'hors_'
'habitants_'
'gives_'
'focused_'
'floor_'
'favoriser_'
'exclusion_'
'espèces_'
'eront_'
'easier_'
'dynamique_'
'distinction_'
'defence_'
'considérer_'
'conferences_'
'clés_'
'classes_'
'claire_'
'charged_'
'changing_'
'canadiens_'
'canadiennes_'
'bord_'
'ban_'
'associés_'
'assess_'
'ar'
'appointed_'
'annoncé_'
'album_'
'adjoint_'
'accounts_'
'accounting_'
'WTO_'
'Saskatchewan_'
'River_'
'PA'
'Once_'
'OMPI_'
'Néanmoins_'
'Lo'
'Direction_'
'Cooperation_'
'Civil_'
'Chief_'
'Can_'
'Bo'
'Belarus_'
'Be'
'AR'
'A'
'98_'
'77_'
'600_'
'31'
'   . - _'
'z'
'wood_'
'weapon_'
'vol_'
've'
'traite_'
'territoires_'
'sufficient_'
'sought_'
'régler_'
'reflected_'
'rapporteurs_'
'préparer_'
'préparation_'
'préoccupations_'
'précédent_'
'previously_'
'poser_'
'photos_'
'patient_'
'partner_'
'opened_'
'ones_'
'obstacle_'
'né_'
'multiples_'
'monnaie_'
'mid_'
'mener_'
'machine_'
'learn_'
'ka_'
'ka'
'jeux_'
'ization_'
'investigation_'
'interprétation_'
'inclusion_'
'i'
'host_'
'guest_'
'fournit_'
'fighting_'
'experiences_'
'espoir_'
'else_'
'department_'
'declaration_'
'bathroom_'
'banque_'
'bancaire_'
'aéroport_'
'attend_'
'arguments_'
'appelé_'
'anti'
'antes_'
'alimentaires_'
'absolutely_'
'Transport_'
'See_'
'PNUD_'
'NEW_'
'Ministre_'
'Le'
'LE'
'Ko'
'Finance_'
'FA'
'Data_'
'Chaque_'
'CC'
'Australia_'
'Amnesty_'
'états_'
'équitable_'
'widely_'
'vice_'
'treated_'
'tourisme_'
'territorial_'
'summit_'
'spéciales_'
'souligné_'
'sion_'
'sept_'
'save_'
'running_'
'returned_'
'raise_'
'puisque_'
'protected_'
'passage_'
'particuliers_'
'occur_'
'ny_'
'nuit_'
'notice_'
'models_'
'mo'
'mettant_'
'mentionné_'
'mention_'
'marine_'
'lumière_'
'love_'
'lement_'
'latine_'
'internes_'
'html_'
'highest_'
'gérer_'
'graves_'
'globalization_'
'gamme_'
'futures_'
'flow_'
'expectations_'
'exclusive_'
'essentiellement_'
'erreur_'
'développés_'
'drogues_'
'donnée_'
'diffusion_'
'devoir_'
'desire_'
'database_'
'da'
'covered_'
'containing_'
'collectivités_'
'coalition_'
'che_'
'champ_'
'ch'
'bénéficier_'
'buy_'
'bonds_'
'banking_'
'atteint_'
'annuel_'
'amounts_'
'affect_'
'acte_'
'Your_'
'Work_'
'Unfortunately_'
'Total_'
'Pacte_'
'Official_'
'Nos_'
'Northern_'
'Montréal_'
'Labour_'
'LES_'
'IT_'
'Hôtel_'
'HA'
'ED_'
'ECB_'
'Despite_'
'Covenant_'
'Cor'
'CD'
'Any_'
'85_'
'613_'
'3'
'wanted_'
'wa'
'vérification_'
'voire_'
'una'
'ture_'
'trafficking_'
'tests_'
'sse_'
'solidarity_'
'seuls_'
'says_'
'révision_'
'ro_'
'rie_'
'resulting_'
'responses_'
'resolve_'
'reserves_'
'requis_'
'protecting_'
'processing_'
'portée_'
'patrimoine_'
'ouvert_'
'outil_'
'obvious_'
'motion_'
'monitor_'
'modified_'
'maintained_'
'journée_'
'ized_'
'involvement_'
'intermédiaire_'
'installed_'
'impose_'
'grounds_'
'getting_'
'fruits_'
'forêts_'
'fit_'
'firm_'
'finally_'
'fail_'
'faces_'
'extend_'
'explique_'
'exercer_'
'excessive_'
'entendre_'
'enforcement_'
'différence_'
'detail_'
'demeure_'
'dangerous_'
'culturel_'
'coup_'
'correct_'
'contrats_'
'concluded_'
'combined_'
'ck'
'centrales_'
'budgetary_'
'beach_'
'asile_'
'analyses_'
'adaptation_'
'accrue_'
'UK_'
'Those_'
'TA'
'Society_'
'Sans_'
'RI'
'RE_'
'Pays_'
'O'
'NE'
'Madrid_'
'Last_'
'IN'
'Home_'
'Do'
'DA'
'Criminal_'
'Co'
'Charte_'
'Because_'
'64_'
'250_'
'24h_'
'2011_'
'%, _'
' ( _'
'® _'
'y'
'wi'
'versions_'
'track_'
'supervision_'
'sports_'
'sin'
'severe_'
'réels_'
'réduit_'
'rent_'
'remercie_'
'rejected_'
'recommandation_'
'rappeler_'
'productivity_'
'privées_'
'prime_'
'pleine_'
'peux_'
'path_'
'pa'
'numéro_'
'notification_'
'nent_'
'navires_'
'montrer_'
'minute_'
'map_'
'maintaining_'
'loans_'
'lit_'
'le'
'lands_'
'laid_'
'kg_'
'investors_'
'impôts_'
'ide_'
'félicite_'
'finding_'
'expenses_'
'détention_'
'drawn_'
'devient_'
'device_'
'demonstrated_'
'dated_'
'crédits_'
'concentration_'
'components_'
'complète_'
'civils_'
'character_'
'catastrophes_'
'buffet_'
'bar'
'b'
'audit_'
'assure_'
'américaines_'
'alimentation_'
'actif_'
'achievement_'
'Thus_'
'Pendant_'
'Media_'
'Ku'
'IV_'
'IP_'
'Hong_'
'Guinea_'
'Grèce_'
'Given_'
'Family_'
'Département_'
'Day_'
'Christ_'
'Child_'
'Bretagne_'
': “_'
'93_'
'92_'
'73_'
'66_'
') : _'
' » (_'
'worth_'
'went_'
'welfare_'
'vivre_'
'viable_'
'vely_'
'vehicles_'
'units_'
'trading_'
'titres_'
'thème_'
'taxation_'
'standing_'
'spent_'
'sets_'
'riches_'
'restent_'
'pénale_'
'prévenir_'
'professionnelle_'
'prepare_'
'ports_'
'porter_'
'po'
'peaceful_'
'partly_'
'participé_'
'parc_'
'packages_'
'owned_'
'outcomes_'
'ot_'
'mot_'
'modalités_'
'mini_'
'middle_'
'ley_'
'lecture_'
'keeping_'
'isme_'
'investisseurs_'
'instructions_'
'indicate_'
'ill_'
'holding_'
'happened_'
'ha'
'générales_'
'girls_'
'games_'
'fiscale_'
'fine_'
'extraordinaire_'
'extra_'
'extended_'
'examiné_'
'estimated_'
'encouraging_'
'déchets_'
'débats_'
'division_'
'district_'
'disposer_'
'critique_'
'congratulate_'
'complet_'
'centaines_'
'category_'
'cash_'
'bénéfices_'
'bringing_'
'bly_'
'bi'
'bear_'
'balanced_'
'attaques_'
'attack_'
'asylum_'
'approximately_'
'apprentissage_'
'appareils_'
'anciens_'
'ales_'
'aims_'
'affairs_'
'Venezuela_'
'UNDP_'
'Toutes_'
'Switzerland_'
'Sweden_'
'SP'
'SI'
'Rwanda_'
'Rule_'
'Pologne_'
'Plusieurs_'
'Park_'
'Palestiniens_'
'PDF_'
'Notes_'
'Nigeria_'
'NATO_'
'Leone_'
'Lake_'
'Kong_'
'Kenya_'
'Ja'
'IMF_'
'EN'
'Czech_'
'COM_'
'Budget_'
'Brunswick_'
'Austria_'
'Airport_'
'7'
'24'
'20'
'.._'
'.-_'
' «&#_'
'élèves_'
' ; _'
' '
'ya_'
'widespread_'
'vidéo_'
'under'
'transformation_'
'traités_'
'tensions_'
'sé'
'supplies_'
'sses_'
'sortie_'
'ski_'
'showing_'
'seriously_'
'savons_'
'sauf_'
'régimes_'
'russe_'
'recommendation_'
'quartier_'
'pro_'
'privés_'
'precisely_'
'possibles_'
'pointed_'
'ourselves_'
'occasions_'
'ning_'
'nd_'
'moving_'
'ministers_'
'marketing_'
'majeure_'
'livre_'
'ki_'
'je'
'introduce_'
'imposition_'
'impacts_'
'idéal_'
'harmonisation_'
'génération_'
'genuine_'
'financer_'
'finalement_'
'filles_'
'fichier_'
'faibles_'
'experienced_'
'entered_'
'engage_'
'endroit_'
'dépôt_'
'devrions_'
'devra_'
'devez_'
'delivered_'
'defense_'
'ction_'
'croire_'
'critiques_'
'contrary_'
'conforme_'
'comply_'
'comfort_'
'civilian_'
'characteristics_'
'ceci_'
'capitale_'
'ates_'
'arrêt_'
'approaches_'
'animals_'
'aircraft_'
'accidents_'
'Where_'
'Tax_'
'TRANS_'
'Se'
'Royal_'
'Per'
'OTAN_'
'Nice_'
'Nevertheless_'
'Mediterranean_'
'Manitoba_'
'Islam_'
'Further_'
'Environmental_'
'EI'
'Do_'
'Democrats_'
'Del'
'Company_'
'Colombia_'
'Clinton_'
'Belgium_'
'Based_'
'Atlantic_'
'Agenda_'
'AD'
'50'
'2013_'
')(_'
'élection_'
'échec_'
'  _'
'woman_'
'whatever_'
'weight_'
'wants_'
'voyage_'
'vitesse_'
'vast_'
'tâches_'
'trends_'
'te'
'tabled_'
'summary_'
'spend_'
'specialized_'
'solide_'
'sections_'
'réellement_'
'rue_'
'rou'
'revenue_'
'researchers_'
'radical_'
'quotas_'
'préalable_'
'prestations_'
'premiers_'
'pre'
'pouvant_'
'populaire_'
'plant_'
'physique_'
'penser_'
'pe_'
'owing_'
'obtenu_'
'obligatoire_'
'nomination_'
'neuf_'
'mémoire_'
'movements_'
'modes_'
'minorities_'
'mainly_'
'launched_'
'ko_'
'ise_'
'intégrer_'
'intervenir_'
'intervenants_'
'ino'
'infection_'
'im_'
'ien_'
'guarantees_'
'functions_'
'fondamentale_'
'fields_'
'feu_'
'fabrication_'
'explain_'
'environnementale_'
'ents_'
'employé_'
'ele'
'dépend_'
'download_'
'dimensions_'
'différences_'
'devices_'
'counter_'
'constater_'
'conférences_'
'comprennent_'
'changer_'
'ating_'
'adoptées_'
'activement_'
'acquisition_'
'Z_'
'Te'
'Site_'
'Secrétariat_'
'Ra'
'PCT_'
'ON'
'News_'
'Martin_'
'Ki'
'Just_'
'Joint_'
'Instead_'
'IS_'
'Hussein_'
'Her'
'Google_'
'Foundation_'
'DU_'
'Brussels_'
'BA'
';: _'
'; (_'
'61_'
'27'
'120_'
'… _'
'élimination_'
'écran_'
'za'
'véritablement_'
'visible_'
'violent_'
'van_'
'utilisée_'
'undertake_'
'truth_'
'troops_'
'threats_'
'textes_'
'territories_'
'taxe_'
'strongly_'
'street_'
'story_'
'stations_'
'somme_'
'significantly_'
'sh_'
'salles_'
'régulièrement_'
'réduite_'
'root_'
'respective_'
'représentation_'
'represent_'
'recession_'
'raising_'
'quiet_'
'prove_'
'plenary_'
'played_'
'paiements_'
'operate_'
'observation_'
'ob'
'o'
'négociation_'
'nement_'
'moteur_'
'mi_'
'merely_'
'menaces_'
'meaning_'
'marque_'
'locale_'
'io_'
'involves_'
'invasion_'
'interface_'
'instamment_'
'inform_'
'incentives_'
'improvements_'
'iii_'
'iez_'
'ical_'
'heard_'
'gre'
'ft_'
'fixed_'
'fees_'
'familiale_'
'expliquer_'
'ets_'
'essentiels_'
'entirely_'
'emphasis_'
'désarmement_'
'directe_'
'die_'
'devenu_'
'detention_'
'den_'
'deliver_'
'culturels_'
'courts_'
'correspond_'
'contenant_'
'constitute_'
'confusion_'
'component_'
'compagnies_'
'committees_'
'commerciale_'
'comités_'
'classification_'
'catastrophe_'
'candidat_'
'camps_'
'born_'
'binding_'
'autorisation_'
'authorized_'
'author_'
'arrivée_'
'applique_'
'annuelle_'
'ana'
'amended_'
'accepté_'
'Vancouver_'
'Soviet_'
'Source_'
'Saudi_'
'RA'
'Occident_'
'Network_'
'Ne'
'Lors_'
'In'
'Implementation_'
'He'
'GA'
'Following_'
'Eastern_'
'Chamber_'
'CO'
'Bruxelles_'
'Beijing_'
'AT'
'A5_'
': "_'
'86_'
'700_'
'équipement_'
'ène_'
'ys_'
'utilise_'
'unit_'
'trouverez_'
'tri'
'television_'
'targeted_'
'susceptible_'
'summer_'
'suggestions_'
'successfully_'
'sts_'
'south_'
'souhaitez_'
'settlement_'
'server_'
'ser'
'sauna_'
'salaires_'
'rurales_'
'residence_'
'relever_'
'provisoire_'
'prospérité_'
'prosperity_'
'profits_'
'playing_'
'og'
'obtain_'
'néanmoins_'
'mérite_'
'montré_'
'mené_'
'logiciels_'
'logical_'
'legitimate_'
'learned_'
'killed_'
'juge_'
'intérieure_'
'intergovernmental_'
'inscrit_'
'indicateurs_'
'ille_'
'hip_'
'gone_'
'gauche_'
'fruit_'
'facteur_'
'exportation_'
'explained_'
'except_'
'espagnol_'
'effectuer_'
'ee'
'dynamic_'
'droite_'
'description_'
'correctement_'
'consulter_'
'construire_'
'concrete_'
'concours_'
'complexe_'
'colleagues_'
'cohesion_'
'club_'
'climat_'
'clause_'
'chi'
'chers_'
'chacune_'
'carbone_'
'cadres_'
'burden_'
'break_'
'becomes_'
'avancés_'
'avance_'
'auteurs_'
'arts_'
'appreciation_'
'actively_'
'White_'
'VI_'
'Time_'
'Suède_'
'Summary_'
'School_'
'Red_'
'RS_'
'Page_'
'PHP_'
'ONG_'
'Nouveau_'
'Grâce_'
'Fax_'
'FE'
'Er'
'El_'
'Développement_'
'Decision_'
'De'
'Congress_'
'Communications_'
'Che'
'CEE_'
'Bas_'
'Bar_'
'Balkans_'
'Aux_'
'Argentine_'
'Am'
'AP'
'30'
'25'
'2015_'
'2012_'
'1987_'
'16'
'11'
'. (_'
', (_'
' ('
'� _'
'zo'
'vacances_'
'unlikely_'
'university_'
'understood_'
'tôt_'
'tried_'
'tive_'
'talk_'
'sélection_'
'suppression_'
'substantive_'
'stade_'
'smoking_'
'signé_'
'shopping_'
'sexes_'
'sensibilisation_'
'senior_'
'sed_'
'secrétaire_'
'secret_'
'seconde_'
'se'
'sant_'
'rt_'
'requête_'
'represented_'
'remplir_'
'rapidly_'
'ps_'
'présentée_'
'proliferation_'
'progresser_'
'prestation_'
'pourront_'
'poids_'
'picture_'
'palestinien_'
'nti'
'lu'
'lists_'
'king_'
'ives_'
'implique_'
'identifier_'
'historiques_'
'helping_'
'généraux_'
'grant_'
'ger_'
'funded_'
'functioning_'
'findings_'
'felt_'
'farm_'
'expenditure_'
'exemption_'
'ethniques_'
'essais_'
'entrer_'
'en'
'electoral_'
'effectivement_'
'détails_'
'démocratiques_'
'défendre_'
'décider_'
'dy_'
'dri'
'dispute_'
'den'
'dangereux_'
'convaincu_'
'contributed_'
'constructive_'
'considérablement_'
'considérable_'
'connexion_'
'compatible_'
'commande_'
'command_'
'blood_'
'ba_'
'avancées_'
'appropriée_'
'applicables_'
'allemand_'
'To'
'Sudan_'
'Science_'
'Roumanie_'
'Rock_'
'Quant_'
'Pi'
'Pe'
'Parti_'
'PI'
'Order_'
'OCDE_'
'NC'
'Monday_'
'Manager_'
'MO'
'IN_'
'Gra'
'Good_'
'Gi'
'Energy_'
'El'
'Draft_'
'Cyprus_'
'Common_'
'Chambre_'
'Blair_'
'Ba'
';» _'
'68_'
'63_'
'29'
''
'è'
'»._'
'   – _'
'ya'
'weak_'
'vo'
'ving_'
'ut_'
'up'
'underlying_'
'teurs_'
'suggests_'
'subsequent_'
'subsection_'
'square_'
'soft_'
'sm_'
'showed_'
'servi_'
'récession_'
'rons_'
'revenues_'
'regret_'
'refugee_'
'reflects_'
'rd_'
'ration_'
'raient_'
'pénal_'
'protocole_'
'prolifération_'
'professionals_'
'producers_'
'presidency_'
'poursuite_'
'post'
'possède_'
'possession_'
'plants_'
'permit_'
'permettrait_'
'per'
'participating_'
'parlementaires_'
'outstanding_'
'output_'
'out'
'offrent_'
'nine_'
'modernes_'
'minority_'
'milliers_'
'marche_'
'managers_'
'mal'
'lé'
'limitée_'
'liaison_'
'lasting_'
'it'
'investigations_'
'intitulé_'
'installer_'
'ins_'
'indiquer_'
'importation_'
'hear_'
'happen_'
'hand'
'ha_'
'h'
'generation_'
'futur_'
'fumeurs_'
'fellow_'
'executive_'
'enormous_'
'encouraged_'
'détail_'
'désa'
'dois_'
'distributed_'
'destinées_'
'define_'
'corporations_'
'contrôler_'
'considérables_'
'closer_'
'cherche_'
'carrying_'
'brevets_'
'believes_'
'ban'
'automatically_'
'atmosphère_'
'ambiance_'
'adultes_'
'acquis_'
'Youth_'
'Sustainable_'
'QUE_'
'Provincial_'
'Pro'
'Political_'
'Police_'
'Permanent_'
'Palestinians_'
'Pacifique_'
'NA'
'Mu'
'Linux_'
'Jo'
'Guest_'
'Guatemala_'
'Greek_'
'Fédération_'
'Facilities_'
'Européens_'
'Due_'
'Center_'
'CS'
'CP'
'CF'
'Athlétisme_'
'Amsterdam_'
';'
'6'
'44'
'4'
'38'
'1960_'
'193'
'" (_'
'! _'
'évidence_'
'Église_'
'yourself_'
'véhicule_'
'vues_'
'voters_'
'visiteurs_'
'uvre_'
'uni'
'tés_'
'tur'
'tu_'
'truly_'
'tomorrow_'
'tend_'
'teaching_'
'suffit_'
'stes_'
'sta'
'signal_'
'saw_'
'réussi_'
'réaction_'
'remote_'
'relève_'
'recommend_'
'receiving_'
'questionnaire_'
'qualified_'
'productivité_'
'productive_'
'producing_'
'plénière_'
'permanente_'
'pace_'
'orientations_'
'opposed_'
'offrant_'
'noms_'
'maritime_'
'malheureusement_'
'lose_'
'lla'
'ld_'
'laisser_'
'laisse_'
'jeune_'
'ium_'
'isation_'
'invitation_'
'intelligence_'
'ing'
'indépendant_'
'inclure_'
'households_'
'honorable_'
'hi'
'gri'
'gi'
'frontière_'
'fresh_'
'française_'
'foundation_'
'flexible_'
'fil_'
'father_'
'erreurs_'
'environnementaux_'
'enti'
'elimination_'
'el'
'effectués_'
'disposent_'
'dettes_'
'depends_'
'demonstrate_'
'dehors_'
'deficits_'
'dedicated_'
'culturelle_'
'conformité_'
'conduite_'
'conclude_'
'commence_'
'combination_'
'cally_'
'cable_'
'buildings_'
'bri'
'blement_'
'bit_'
'bientôt_'
'ber_'
'background_'
'avions_'
'augmenté_'
'approprié_'
'anyone_'
'allocation_'
'acheter_'
'Zimbabwe_'
'Za'
'Ya'
'Voir_'
'Uni'
'Treasury_'
'Their_'
'Sa'
'SU'
'Rules_'
'Ru'
'Robert_'
'Représentant_'
'Portuguese_'
'PH'
'PE'
'OC'
'Nova_'
'Mon_'
'Michael_'
'Luxembourg_'
'Lorsqu_'
'Iraqi_'
'Har'
'GR'
'ER_'
'EC'
'Doha_'
'DS_'
'Compte_'
'Check_'
'CP_'
'Bulgaria_'
'Best_'
'BCE_'
'An'
'Afin_'
'Affaires_'
'Administrative_'
'AC'
'79_'
'71_'
'69_'
'1970_'
'. '
'.'
','
''
'í'
'° _'
'wishes_'
'ver_'
'utilisant_'
'tro'
'timely_'
'teur_'
'tal_'
'speech_'
'soutenu_'
'societies_'
'sla'
'simples_'
'shi'
'sentence_'
'selection_'
'select_'
'répondu_'
'réel_'
'ro'
'representing_'
'remember_'
'remaining_'
'reaching_'
'raw_'
'ratio_'
'q_'
'pursue_'
'préciser_'
'proved_'
'proposée_'
'professionnelles_'
'plainte_'
'pensions_'
'peacekeeping_'
'passed_'
'partenariats_'
'paragraphes_'
'older_'
'officielle_'
'observateurs_'
'ne'
'naturel_'
'modifié_'
'manufacturing_'
'lt'
'logement_'
'lié_'
'lie_'
'liability_'
'lan'
'iste_'
'interim_'
'interesting_'
'interdit_'
'inter'
'ility_'
'hydro'
'household_'
'hot_'
'hopes_'
'homes_'
'heureux_'
'helps_'
'hearing_'
'greatest_'
'gap_'
'functional_'
'fourni_'
'formulation_'
'foi_'
'falls_'
'facility_'
'exposé_'
'exemples_'
'et'
'equivalent_'
'equally_'
'entretien_'
'enregistré_'
'engager_'
'electricity_'
'effectué_'
'ed'
'découvrir_'
'displaced_'
'dignity_'
'depend_'
'delay_'
'coverage_'
'courant_'
'convinced_'
'constitutional_'
'configuration_'
'coffre_'
'circonstances_'
'choisi_'
'chaîne_'
'career_'
'c'
'bra'
'auparavant_'
'atteinte_'
'assurances_'
'arising_'
'annonce_'
'anc'
'adressée_'
'actuels_'
'accueille_'
'accountability_'
'accise_'
'absolument_'
'a'
'Water_'
'Veuillez_'
'Ve'
'Training_'
'Ti'
'Then_'
'TO_'
'Syrie_'
'Su'
'Ste'
'Secondly_'
'Ro'
'Par'
'PA_'
'Out'
'OR'
'Na'
'NI'
'Ltd_'
'Limited_'
'Lebanon_'
'Ka'
'Indonesia_'
'IP'
'IF'
'Green_'
'Free_'
'Finland_'
'Fi_'
'Every_'
'EADS_'
'Deuxièmement_'
'Da'
'DI'
'Commentaires_'
'Colombie_'
'Chi'
'Car_'
'Before_'
'Bar'
'Bangladesh_'
'Application_'
'AN_'
'; '
': '
'94_'
'83_'
'110_'
'– _'
'étroite_'
'étendre_'
'émission_'
'ä'
' », _'
'write_'
'wo'
'waiting_'
'vivent_'
'veux_'
'updated_'
'ultimately_'
'trend_'
'transit_'
'tor'
'tiques_'
'ti_'
'tendances_'
'tasks_'
'sérieux_'
'sé_'
'suites_'
'suffering_'
'submission_'
'su'
'spécifique_'
'soutient_'
'souhaitent_'
'signe_'
'si'
'serving_'
'sert_'
'secondary_'
'révolution_'
'réussite_'
'répression_'
'ri_'
'revanche_'
'reserve_'
'rel'
'register_'
'recommandé_'
're'
'putting_'
'pu'
'présentés_'
'précis_'
'progressive_'
'profile_'
'prioritaires_'
'pos'
'peur_'
'pensons_'
'overcome_'
'organisée_'
'organiser_'
'ordinary_'
'operators_'
'onal_'
'navigation_'
'ménages_'
'mp'
'mostly_'
'mortgage_'
'marked_'
'lire_'
'las_'
'ku'
'ju'
'japonais_'
'ition_'
'iti'
'islamique_'
'intégré_'
'ines_'
'immédiatement_'
'humanity_'
'healthy_'
'gratuitement_'
'got_'
'ght_'
'geo'
'gar'
'féliciter_'
'forget_'
'flexibility_'
'figurent_'
'favorables_'
'facts_'
'faced_'
'existantes_'
'entend_'
'encontre_'
'element_'
'drinking_'
'door_'
'died_'
'dead_'
'dar'
'cuts_'
'courses_'
'copies_'
'convergence_'
'considering_'
'consent_'
'connexes_'
'comporte_'
'commercialisation_'
'cohésion_'
'clubs_'
'click_'
'cité_'
'chosen_'
'chimiques_'
'chercher_'
'chair_'
'cartes_'
'capture_'
'campaigns_'
'calling_'
'bro'
'behavior_'
'avancer_'
'attached_'
'ateurs_'
'asking_'
'applicant_'
'appareil_'
'app'
'ances_'
'ambitious_'
'aides_'
'adolescents_'
'administratives_'
'abroad_'
'aborder_'
'ab'
']._'
'Year_'
'Without_'
'Wi_'
'Turkish_'
'Sur'
'Star_'
'Réunion_'
'Re'
'Pre'
'Peace_'
'Pa'
'MD'
'Lord_'
'Legal_'
'LI'
'Journal_'
'Island_'
'Interactive_'
'Guidelines_'
'Guerre_'
'Fi'
'Dès_'
'Di'
'DE'
'Congrès_'
'Certaines_'
'Ca'
'Burundi_'
'Adoption_'
'Access_'
'?'
';; _'
'72_'
'67_'
'28'
'%_'
'ón_'
'éri'
'épargne_'
'ènes_'
'Égypte_'
'worse_'
'whereas_'
'warm_'
'wage_'
'vérifier_'
'vaut_'
'valuable_'
'unités_'
'turned_'
'trouvé_'
'tourism_'
'touchant_'
'ter'
'technological_'
'teams_'
'ss'
'spoke_'
'souligne_'
'so'
'smaller_'
'silence_'
'shape_'
'servi'
'rose_'
'returns_'
'reproduction_'
'remise_'
'religions_'
'regimes_'
'referendum_'
'recommends_'
'puisqu_'
'prévisions_'
'promises_'
'pressions_'
'prennent_'
'permitted_'
'periods_'
'perdu_'
'paying_'
'passagers_'
'ouvre_'
'ory_'
'oli'
'observed_'
'mouvements_'
'mondiales_'
'modernisation_'
'mg_'
'menée_'
'mar'
'livres_'
'lessons_'
'length_'
'ky_'
'ker_'
'joué_'
'jou'
'interaction_'
'instances_'
'innovations_'
'informer_'
'indication_'
'indemnité_'
'incidents_'
'importations_'
'ht'
'gue_'
'gu'
'green_'
'garanties_'
'freedoms_'
'formulaire_'
'formed_'
'fonctionne_'
'fo'
'flows_'
'flight_'
'exposure_'
'existent_'
'examples_'
'examined_'
'ess_'
'email_'
'délais_'
'décrit_'
'décennies_'
'dou'
'dor'
'difficiles_'
'di'
'customs_'
'croissante_'
'corresponding_'
'constituer_'
'considérée_'
'considers_'
'confirm_'
'communs_'
'collapse_'
'coeur_'
'cible_'
'ci'
'che'
'cha'
'certification_'
'bou'
'belief_'
'be'
'bal'
'bain_'
'attirer_'
'attaquer_'
'arrested_'
'arrangement_'
'armées_'
'appliqué_'
'appliquent_'
'appeared_'
'amp_'
'ace'
'absolute_'
'Yugoslavia_'
'Technology_'
'Technical_'
'TO'
'TE_'
'Sta'
'Sommet_'
'Ser'
'Sen'
'Sarkozy_'
'Roma_'
'Question_'
'Putin_'
'Professor_'
'Products_'
'Prague_'
'Partnership_'
'PD'
'Or'
'Ol'
'Officer_'
'OS'
'Nor_'
'Mi'
'Merkel_'
'Mal'
'Macedonia_'
'Life_'
'Li'
'Kuwait_'
'IM'
'Ha'
'Gor'
'Ghana_'
'Gen'
'Earth_'
'Droits_'
'DO'
'Customs_'
'Cu'
'Countries_'
'Co_'
'CO2_'
'Breakfast_'
'Branch_'
'Arabia_'
'ATION_'
'AM'
'AL_'
'95'
'90'
'88_'
'82_'
'81_'
'43'
'34'
'23'
'10'
'” (_'
'—_'
'‑_'
'évidemment_'
'â'
'», _'
'ze'
'vivant_'
'vite_'
'visée_'
'vi'
'ur'
'universités_'
'une'
'unacceptable_'
'troubles_'
'transportation_'
'traditionnels_'
'tra'
'tourist_'
'tor_'
'tique_'
'supérieure_'
'suitable_'
'statistique_'
'statistical_'
'soumettre_'
'soldats_'
'socio_'
'sixth_'
'shower_'
'sho'
'shift_'
'résidence_'
'ry'
'ri'
'reviewed_'
'retraite_'
'represents_'
'remplacer_'
'rejoindre_'
'reflète_'
'rappelle_'
'q'
'prévue_'
'précise_'
'proposées_'
'proof_'
'player_'
'plaisir_'
'perdre_'
'participant_'
'parent_'
'ownership_'
'ouvrir_'
'organe_'
'oni'
'officiels_'
'musulmans_'
'mountain_'
'mment_'
'minister_'
'mine_'
'me'
'makers_'
'mains_'
'machines_'
'lies_'
'liberal_'
'kr_'
'knows_'
'ki'
'ize_'
'ir'
'involve_'
'intégrée_'
'intentions_'
'install_'
'input_'
'ingly_'
'industriel_'
'ib'
'humanitaires_'
'hu'
'hoc_'
'ho'
'head'
'gold_'
'geographical_'
'gare_'
'garder_'
'friend_'
'fournis_'
'films_'
'fan_'
'excellence_'
'euse_'
'ette_'
'entente_'
'els_'
'eliminate_'
'effectuée_'
'economics_'
'décennie_'
'duties_'
'disasters_'
'destiné_'
'designated_'
'demain_'
'degré_'
'couple_'
'contributing_'
'consommateur_'
'confirmé_'
'concentrer_'
'concentrations_'
'complexes_'
'comparaison_'
'combattre_'
'collègue_'
'codes_'
'climatiques_'
'cinquième_'
'capabilities_'
'calcul_'
'bre'
'bilité_'
'aérien_'
'assumed_'
'assume_'
'arrears_'
'argued_'
'appartenant_'
'airport_'
'aine_'
'admission_'
'acquérir_'
'acceptance_'
'abus_'
'Voilà_'
'Unit_'
'Supreme_'
'Strasbourg_'
'Staff_'
'SA'
'Road_'
'Port_'
'Parmi_'
'Paper_'
'Old_'
'OL'
'Number_'
'Nobel_'
'NG_'
'My'
'Moldova_'
'Malheureusement_'
'Like_'
'IS'
'IR'
'ID_'
'ID'
'Fisheries_'
'Express_'
'EP'
'EM'
'Contact_'
'Club_'
'Chapter_'
'CM'
'CE'
'CAR'
'Bay_'
'Barack_'
'BU'
'Australie_'
'As'
'Annexe_'
'AP_'
'33'
'21'
'17'
'15'
'*_'
'('
' . . _'
' '
'êtres_'
'ê'
'éthique_'
'zero_'
'workshops_'
'wing_'
'walking_'
'vérité_'
'vulnérables_'
'voyageurs_'
'voiture_'
'victoire_'
'utiles_'
'usually_'
'undertaking_'
'ttes_'
'travaillent_'
'tested_'
'terrasse_'
'tentative_'
'tarif_'
'tangible_'
'tan'
'sustainability_'
'suicide_'
'stu'
'ster_'
'située_'
'sis_'
'shares_'
'serveur_'
'sen_'
'scène_'
'screen_'
'scheduled_'
'saving_'
'répartition_'
'rez_'
'retirement_'
'replace_'
'rencontre_'
'ras'
'rang_'
'quantité_'
'présentées_'
'programming_'
'prisoners_'
'presentation_'
'posts_'
'positif_'
'poly'
'performances_'
'penalty_'
'pen'
'park_'
'over'
'ouest_'
'or'
'officielles_'
'obtenus_'
'observe_'
'nourriture_'
'noise_'
'ng'
'negotiating_'
'nda'
'mé'
'multiple_'
'menées_'
'lt_'
'licences_'
'libéralisation_'
'levée_'
'lar'
'ji'
'ja'
'istes_'
'invest_'
'ine'
'humanité_'
'holds_'
'heads_'
'heading_'
'guidance_'
'gs_'
'genetic_'
'generate_'
'fr_'
'fournisseurs_'
'foot_'
'fi'
'fermement_'
'expand_'
'estimations_'
'envoyer_'
'engagés_'
'efficacement_'
'east_'
'démarche_'
'du'
'donor_'
'devenue_'
'determining_'
'destinés_'
'depending_'
'demandent_'
'dealt_'
'dates_'
'célèbre_'
'criminalité_'
'courage_'
'conviction_'
'contribue_'
'continuera_'
'conserver_'
'confortable_'
'collectivité_'
'categories_'
'cast_'
'bénéficiaires_'
'bound_'
'bons_'
'bio'
'believed_'
'barriers_'
'ba'
'ay_'
'associé_'
'asset_'
'assessed_'
'appropriées_'
'affirmé_'
'affectation_'
'administrations_'
'adjustment_'
'acquired_'
'accueillir_'
'accordée_'
'abandon_'
'Ver'
'Un'
'Tri'
'Trans'
'Tra'
'Sé'
'Sub_'
'Status_'
'Serbie_'
'Scientific_'
'Rica_'
'RC'
'Prince_'
'PT_'
'PRO'
'Norway_'
'Museum_'
'Ma'
'Ji'
'Je'
'Ir'
'Hezbollah_'
'Fe'
'Exchange_'
'Euro_'
'Employment_'
'EA_'
'Dan'
'Côte_'
'Contracting_'
'Commerce_'
'Cold_'
'Caribbean_'
'Car'
'C5_'
'Angola_'
'91_'
'89_'
'8'
'40'
'32'
'22'
'191'
'04'
'.  _'
'о'
'équipes_'
'électricité_'
'électorale_'
'électeurs_'
'é'
'za_'
'west_'
'wars_'
'wages_'
'voyages_'
'voter_'
'vir'
'veuillez_'
'uncertainty_'
'ul_'
'témoins_'
'tru'
'travaille_'
'traditionnelles_'
'topics_'
'tit'
'terrorists_'
'tellement_'
'talks_'
'tables_'
'surprising_'
'surplus_'
'supprimer_'
'substantially_'
'stake_'
'spéciaux_'
'sized_'
'sixième_'
'sitting_'
'signs_'
'ships_'
'satisfaire_'
'récentes_'
'revenir_'
'reprises_'
'representation_'
'renewed_'
'remove_'
'regularly_'
'présents_'
'protocol_'
'proposer_'
'preventing_'
'pra'
'pouvaient_'
'portion_'
'pire_'
'pertinentes_'
'percentage_'
'payable_'
'patent_'
'partager_'
'ou'
'os'
'organised_'
'opération_'
'om_'
'offres_'
'officer_'
'numérique_'
'northern_'
'norme_'
'non'
'nc'
'médicaux_'
'moved_'
'mobility_'
'min_'
'milliard_'
'match_'
'marriage_'
'légitimité_'
'liée_'
'listes_'
'limitations_'
'li_'
'li'
'investir_'
'instruction_'
'injury_'
'informatique_'
'ina'
'immobilier_'
'honneur_'
'har'
'habitat_'
'générations_'
'guaranteed_'
'fying_'
'frequently_'
'fragile_'
'fourniture_'
'forth_'
'fishermen_'
'ferroviaire_'
'ferme_'
'fasse_'
'fans_'
'extérieure_'
'extrême_'
'expériences_'
'explore_'
'exceptional_'
'examination_'
'eventually_'
'ethical_'
'essence_'
'environnementales_'
'entrepris_'
'enabling_'
'dumping_'
'doesn_'
'diverse_'
'disponibilité_'
'disant_'
'dig'
'dh'
'des'
'declared_'
'crée_'
'conversion_'
'comprenant_'
'composé_'
'complaints_'
'commis_'
'combien_'
'collecte_'
'cing_'
'choices_'
'cho'
'chemical_'
'cam'
'bé'
'books_'
'auxquelles_'
'attentes_'
'aspirations_'
'arrêter_'
'appointment_'
'ancienne_'
'an'
'ah_'
'agréable_'
'africaine_'
'adapter_'
'actors_'
'Yu'
'YORK_'
'Within_'
'UNCTAD_'
'UE'
'Toute_'
'Ses_'
'Server_'
'Serbia_'
'Scotia_'
'Sau'
'SC_'
'SA_'
'Questions_'
'Private_'
'Pourquoi_'
'Philippines_'
'Peter_'
'Open_'
'OSCE_'
'Mou'
'LO'
'Ivoire_'
'Int'
'Enterprise_'
'Deux_'
'Delegation_'
'Dal'
'Culture_'
'Col'
'Cha'
'CT'
'Bre'
'Bio'
'Ben'
'BI'
'Assistance_'
'Archives_'
'Ar'
'ACP_'
'74_'
'62_'
'39'
'.)_'
') _'
'''
' ... _'
' &_'
''
'  _'
'ï'
'évident_'
'établis_'
'érer_'
'énorme_'
'édition_'
'á'
'· _'
'worst_'
'welcomes_'
'water'
'warning_'
'visés_'
'visiter_'
'villages_'
'viennent_'
'uns_'
'und_'
'tures_'
'tte_'
'tre_'
'traduction_'
'technologiques_'
'technologique_'
'subsidies_'
'sub'
'su_'
'struggle_'
'storage_'
'ster'
'ssement_'
'sse'
'spacious_'
'sharp_'
'sexe_'
'servent_'
'sensible_'
'seminars_'
'san'
'salon_'
'sais_'
'sa'
'réelle_'
'routes_'
'riche_'
'ret'
'restricted_'
'remédier_'
'remboursement_'
'relance_'
'rare_'
'railway_'
'ra'
'publicly_'
'provisional_'
'prisonniers_'
'potentially_'
'placé_'
'pi'
'perform_'
'participated_'
'palestinienne_'
'pacifique_'
'oppose_'
'oir_'
'north_'
'normally_'
'no'
'naissance_'
'mu'
'montrent_'
'mauvaise_'
'matin_'
'master_'
'marques_'
'majeur_'
'lots_'
'lo'
'lli'
'll'
'listing_'
'limitation_'
'lat'
'la'
'jurisdiction_'
'joined_'
'ite_'
'introducing_'
'informé_'
'infections_'
'indications_'
'incurred_'
'incidences_'
'illness_'
'ienne_'
'ice_'
'ia'
'huit_'
'heritage_'
'hed_'
'grown_'
'gouvernementaux_'
'go'
'globalisation_'
'glo'
'gagner_'
'fou'
'football_'
'fondamental_'
'fifth_'
'exécutif_'
'exists_'
'exceptions_'
'estiment_'
'espérons_'
'error_'
'erie_'
'er'
'entities_'
'engineering_'
'employers_'
'eb'
'déployés_'
'démocrates_'
'déficits_'
'duration_'
'divisions_'
'directrices_'
'directed_'
'diagnostic_'
'deco'
'datée_'
'correspondant_'
'coopérer_'
'constant_'
'concernés_'
'completion_'
'competence_'
'comparable_'
'combating_'
'clinical_'
'climatisation_'
'cles_'
'chiffres_'
'chauffage_'
'chargée_'
'ced_'
'bénéficie_'
'bridge_'
'bout_'
'bottom_'
'bo'
'biggest_'
'belle_'
'battle_'
'basée_'
'automatiquement_'
'attente_'
'attaque_'
'ati'
'arrival_'
'argue_'
'arabes_'
'ara'
'appels_'
'alia_'
'agences_'
'africains_'
'advisory_'
'accroissement_'
'accessibles_'
'Ze'
'Yukon_'
'Yo'
'Vol'
'Vo'
'UN'
'Tibet_'
'Ten'
'Taiwan_'
'Syrian_'
'Station_'
'Sri_'
'So'
'Small_'
'Situé_'
'Sha'
'ST'
'RÉ'
'Revenue_'
'Power_'
'OP'
'OMS_'
'Nombre_'
'No'
'Mus'
'Mer'
'Mc'
'Mat'
'Man'
'Luc'
'Lu'
'Lou'
'Londres_'
'Library_'
'Iranian_'
'Internal_'
'Indonésie_'
'IT'
'Guilty_'
'Governing_'
'GE'
'Front_'
'Financing_'
'Ei'
'Drug_'
'Deputy_'
'DC_'
'Constitutional_'
'Care_'
'CN'
'CH'
'Bill_'
'Bi'
'Appendix_'
'Ali'
'62'
'54'
'49'
'2020_'
'200'
'1982_'
'14'
'105_'
'$ _'
'#_'
'а'
'îles_'
'île_'
'élevée_'
'workplace_'
'white_'
'wait_'
'visits_'
'vieux_'
'vieille_'
'vert_'
'valid_'
'utilisent_'
'urg_'
'troupes_'
'treaties_'
'transfers_'
'transaction_'
'topic_'
'tly_'
'th'
'terrible_'
'terrace_'
'teachers_'
'survival_'
'surrounding_'
'supplied_'
'strengthened_'
'sti'
'stands_'
'ssi'
'someone_'
'sensibles_'
'seeing_'
'sang_'
'sample_'
'rr'
'retirer_'
'resulted_'
'rer_'
'ren'
'reliable_'
'refused_'
'reconnus_'
'reconciliation_'
'rea'
'quo_'
'qui'
'quels_'
'quelconque_'
'puissant_'
'pti'
'préoccupation_'
'précédemment_'
'proceed_'
'preliminary_'
'precise_'
'possibly_'
'policymakers_'
'pleasant_'
'platform_'
'plage_'
'pertinents_'
'pending_'
'partnerships_'
'parliament_'
'parfaitement_'
'oo'
'offence_'
'occupied_'
'oa'
'ns'
'noter_'
'nces_'
'narrow_'
'mère_'
'myself_'
'mit'
'micro'
'mettent_'
'metres_'
'mentale_'
'logique_'
'lits_'
'lin_'
'launch_'
'landscape_'
'ked_'
'judge_'
'ises_'
'ira_'
'introduire_'
'interpretation_'
'industrielle_'
'illégale_'
'holder_'
'highlighted_'
'heavy_'
'grants_'
'founded_'
'foster_'
'fixé_'
'finale_'
'fill_'
'figurant_'
'ff_'
'feeling_'
'fe'
'farming_'
'faisons_'
'extreme_'
'exprimé_'
'exige_'
'exactly_'
'estimate_'
'essai_'
'ery_'
'entraîner_'
'engaged_'
'ends_'
'enables_'
'ec'
'dés'
'démo'
'déclin_'
'dro'
'drawing_'
'donnent_'
'disabilities_'
'directions_'
'didn_'
'derived_'
'depth_'
'dependent_'
'demi_'
'criticism_'
'covering_'
'cot'
'cooperate_'
'consacré_'
'confrontation_'
'concrètes_'
'concert_'
'command'
'carefully_'
'cabinet_'
'broader_'
'box_'
'black_'
'bility_'
'bea'
'autrement_'
'armés_'
'appuie_'
'apprendre_'
'appreciate_'
'ampleur_'
'alt'
'advantages_'
'adults_'
'administratif_'
'accomplis_'
'Ye'
'War'
'WG_'
'Tu'
'Three_'
'Thank_'
'Syria_'
'Swiss_'
'Sa_'
'SR_'
'Results_'
'Qu_'
'Prodi_'
'Pen'
'Partie_'
'PS'
'On'
'NT'
'Muslims_'
'Market_'
'Line_'
'Lin'
'Liban_'
'King_'
'Inn_'
'Heritage_'
'HE'
'Friday_'
'Figure_'
'Fed_'
'FR_'
'En'
'ER'
'Dis'
'Dia'
'DP'
'Communication_'
'Clients_'
'Chypre_'
'Chair_'
'Ceux_'
'Case_'
'CO_'
'CIHR_'
'Bro'
'Bosnie_'
'Bel'
'Barroso_'
'Are_'
'Algeria_'
'Ac'
'AS'
'13'
'03'
', « _'
' (_'
'  _'
'н'
'éventuellement_'
'étudier_'
'échéant_'
'âgées_'
'á_'
'window_'
'wider_'
'wall_'
'vé'
'volontaire_'
'voice_'
'va'
'urged_'
'upper_'
'tours_'
'tol'
'tchèque_'
'séjourner_'
'subsequently_'
'stimulus_'
'st'
'ssa'
'souveraineté_'
'souhaiterais_'
'soir_'
'sky_'
'significance_'
'sexuelle_'
'seeks_'
'saisir_'
'rémunération_'
'récents_'
'rightly_'
'revient_'
'restructuring_'
'restriction_'
'respondents_'
'replaced_'
'remettre_'
'relevance_'
'relationships_'
'refers_'
'recrutement_'
'rail_'
'racism_'
'périodes_'
'pure_'
'publicité_'
'présentes_'
'présentent_'
'pré'
'promise_'
'printemps_'
'presents_'
'preparing_'
'pr'
'pon'
'phénomène_'
'peines_'
'pe'
'passant_'
'parlé_'
'parlement_'
'originally_'
'oriented_'
'ord'
'ol'
'officiel_'
'ocean_'
'occurred_'
'observers_'
'nn'
'newly_'
'neuvième_'
'negotiated_'
'na'
'médecins_'
'moyennes_'
'motifs_'
'mondiaux_'
'moments_'
'minimal_'
'mineurs_'
'meant_'
'masse_'
'managing_'
'législatif_'
'load_'
'lin'
'les'
'legitimacy_'
'latter_'
'lam'
'judges_'
'joueurs_'
'iso'
'internally_'
'ini'
'import_'
'imagine_'
'htm_'
'harm_'
'happy_'
'happens_'
'géo'
'gon'
'gla'
'ge'
'garden_'
'fraude_'
'fraud_'
'fle'
'fiscaux_'
'financed_'
'filing_'
'ffe'
'female_'
'eyes_'
'explanation_'
'expense_'
'existants_'
'excess_'
'evaluate_'
'ev_'
'eu'
'essentielle_'
'ers'
'ere_'
'envisager_'
'enhancing_'
'enhanced_'
'emplacement_'
'elo'
'eighth_'
'effectuées_'
'ef'
'economists_'
'détenus_'
'dépit_'
'définitive_'
'drop_'
'drogue_'
'distinct_'
'directeurs_'
'diplomatique_'
'difficulté_'
'difficulty_'
'deployment_'
'deeply_'
'decrease_'
'debates_'
'culturelles_'
'cro'
'couleur_'
'copyright_'
'coordinated_'
'controlled_'
'consists_'
'conformes_'
'concernées_'
'con_'
'clos_'
'chute_'
'ches_'
'certificate_'
'centuries_'
'car'
'cal'
'bu'
'boost_'
'block_'
'blo'
'birth_'
'biennium_'
'biennal_'
'ber'
'bars_'
'bains_'
'attitudes_'
'attended_'
'ato'
'ateur_'
'artists_'
'appliquée_'
'ano'
'angle_'
'allocated_'
'aime_'
'adresser_'
'adi'
'ade_'
'accompli_'
'aba'
'West'
'Val'
'VI'
'Travel_'
'Tele'
'Tel_'
'Taliban_'
'TPS_'
'Suisse_'
'Stratégie_'
'Stability_'
'Société_'
'Smoking_'
'Slovenia_'
'ST_'
'SS'
'Procedure_'
'Persons_'
'Pact_'
'PS_'
'Op'
'NT_'
'NE_'
'Mé'
'Montreal_'
'Monitoring_'
'Kim_'
'Irish_'
'IC_'
'Holy_'
'Gre'
'Georgia_'
'Fo'
'Et'
'Entre_'
'Défense_'
'Drugs_'
'Deuxième_'
'Conditions_'
'Com'
'Bra'
'Box_'
'Beau'
'BC_'
'Autres_'
'Aussi_'
'Aucune_'
'Art_'
'Ag'
'Additional_'
'Ad'
'AB'
'900_'
'52'
'51'
'47'
'45'
'130_'
'129_'
'. - _'
'):_'
') [_'
')'
'"'
' ▪ _'
' %._'
'étroitement_'
'établies_'
'éta'
'É_'
'© _'
'xy'
'western_'
'voulu_'
'voit_'
'visées_'
'visa_'
'virtually_'
'valoir_'
'vaccins_'
'vac'
'ura'
'universities_'
'universelle_'
'typical_'
'turning_'
'trente_'
'transmettre_'
'trans'
'traditionnelle_'
'ti'
'ters_'
'tab'
'suffered_'
'strict_'
'strength_'
'spécialement_'
'sovereignty_'
'sovereign_'
'soutenue_'
'soumises_'
'sou'
'sortir_'
'sons_'
'somewhat_'
'sol'
'soil_'
'sit'
'seventh_'
'scolaire_'
'savent_'
'résistance_'
'réside_'
'répond_'
'réparation_'
'réchauffement_'
'ruling_'
'retain_'
'restore_'
'resolved_'
'repas_'
'remarks_'
'rejet'
'recorded_'
'reaction_'
'ram'
'quick_'
'puts_'
'précieux_'
'providers_'
'promised_'
'print_'
'politically_'
'placement_'
'pit'
'piscine_'
'pilote_'
'physiques_'
'personnelles_'
'pdf_'
'panel_'
'pan'
'pain_'
'owner_'
'our'
'one'
'on'
'occupe_'
'nommé_'
'naturally_'
'médecine_'
'municipal_'
'mortality_'
'metal_'
'memory_'
'mari'
'manufacturers_'
'luxury_'
'lobby_'
'lo_'
'leisure_'
'leaving_'
'justification_'
'juges_'
'journaux_'
'ite'
'is'
'iri'
'io'
'invention_'
'intéressés_'
'internationally_'
'inte'
'inscrire_'
'infractions_'
'infraction_'
'indicates_'
'ig'
'ich_'
'ically_'
'hen'
'génétique_'
'governing_'
'generated_'
'furniture_'
'fulfil_'
'fort'
'ford_'
'for'
'fondé_'
'focusing_'
'fabricants_'
'expulsion_'
'exploiter_'
'expanded_'
'exempt_'
'exclusively_'
'ethnique_'
'ess'
'espérer_'
'envoyé_'
'entreprendre_'
'entre'
'entités_'
'entering_'
'ens'
'enfance_'
'enabled_'
'employed_'
'emp'
'défini_'
'déclarer_'
'déclare_'
'ds'
'drivers_'
'don'
'dommages_'
'dly_'
'discharge_'
'disability_'
'der'
'demanding_'
'delegations_'
'deemed_'
'cutting_'
'customer_'
'croissant_'
'conventional_'
'contrôles_'
'contribuent_'
'contents_'
'constitué_'
'consentement_'
'connected_'
'confrontés_'
'conciliation_'
'compagnie_'
'combine_'
'com'
'citizen_'
'chief_'
'cars_'
'cap'
'calendrier_'
'ca'
'boom_'
'bis_'
'biologique_'
'berg_'
'beings_'
'bearing_'
'audio_'
'attempts_'
'att'
'assisté_'
'as'
'appoint_'
'apparent_'
'ano_'
'annually_'
'ama'
'allons_'
'alité_'
'ain'
'agriculteurs_'
'advertising_'
'adoptés_'
'acting_'
'accélérer_'
'accurate_'
'We'
'Very_'
'UNHCR_'
'Tur'
'Task_'
'TH'
'Storage_'
'Statement_'
'Space_'
'Spa_'
'Shi'
'Requests_'
'Ren'
'Rappelant_'
'RC_'
'Promotion_'
'Press_'
'Port'
'Net_'
'NRC_'
'ND'
'Myanmar_'
'Morocco_'
'Mon'
'Millénaire_'
'Merci_'
'ME_'
'List_'
'Libya_'
'Language_'
'Jordan_'
'Jacques_'
'Investment_'
'ILO_'
'Hu'
'Ho'
'Head_'
'Having_'
'GO'
'GI'
'Fin'
'Evaluation_'
'Européenne_'
'Euro'
'Ed'
'Du_'
'Desk_'
'Design_'
'Des'
'Deposit_'
'Defence_'
'DVD_'
'Corporate_'
'Conformément_'
'Click_'
'Charles_'
'BE'
'Area_'
'84_'
'80'
'71'
'68'
'46'
'1985_'
'.) _'
' � _'
' /_'
'т'
'л'
'œuvres_'
'événement_'
'énormes_'
'élus_'
'élu_'
'éli'
'yes_'
'yer_'
'workshop_'
'willing_'
'websites_'
'waters_'
'watch_'
'vouloir_'
'visited_'
'violences_'
'vin_'
'via'
'verbal_'
'variables_'
'unions_'
'touche_'
'totally_'
'totalité_'
'theory_'
'tenter_'
'tenant_'
'temperature_'
'talking_'
'tabac_'
'séminaire_'
'sun'
'sum_'
'suffisant_'
'succeed_'
'student_'
'sto'
'stance_'
'spring_'
'spa_'
'sor'
'simplification_'
'signaler_'
'sh'
'sell_'
'seat_'
'sea'
'scolaires_'
'scheme_'
'sca'
'sal'
'résultant_'
'résidents_'
'réglementations_'
'récent_'
'rythme_'
'runs_'
'roads_'
'risquent_'
'retrait_'
'retard_'
'resistance_'
'reservation_'
'représenter_'
'religieuses_'
'relax_'
'refuse_'
'rds_'
'raisonnable_'
'radio'
'raciale_'
'pursuing_'
'présidents_'
'présentant_'
'prot'
'proposes_'
'privacy_'
'preuves_'
'prescriptions_'
'pièce_'
'perception_'
'paramètres_'
'par'
'paquet_'
'pal'
'ote'
'organise_'
'ora'
'opposite_'
'opportunités_'
'opa'
'ons'
'ong_'
'ond'
'offerts_'
'occuper_'
'né'
'ntes_'
'nta'
'nse'
'norms_'
'nette_'
'neighbouring_'
'necessarily_'
'nationals_'
'multi'
'mother_'
'monthly_'
'moindre_'
'modifiée_'
'mod'
'ming_'
'micro_'
'matériaux_'
'marks_'
'mant'
'maisons_'
'mailman_'
'législatives_'
'linguistic_'
'lending_'
'kilomètres_'
'ken'
'jardin_'
'ja_'
'iv_'
'italien_'
'island_'
'intéressant_'
'integrity_'
'insufficient_'
'initiated_'
'inequality_'
'inclus_'
'immense_'
'imm'
'ign'
'ight_'
'ication_'
'ible_'
'ians_'
'hundred_'
'houses_'
'hoped_'
'honour_'
'hit_'
'hauts_'
'hautes_'
'handicapés_'
'gradually_'
'gov_'
'gouvernementale_'
'golf_'
'gan'
'futurs_'
'furent_'
'fonctionner_'
'flexibilité_'
'fla'
'falling_'
'ext'
'evening_'
'essentially_'
'espèce_'
'environments_'
'eni'
'engagé_'
'employeurs_'
'eli'
'ea'
'déterminé_'
'définit_'
'driven_'
'do'
'dispositif_'
'display_'
'dignité_'
'différent_'
'dea'
'dd'
'cycles_'
'cti'
'cop'
'continuous_'
'considérés_'
'conjointement_'
'confirmation_'
'compréhension_'
'complètement_'
'competent_'
'comparison_'
'communiste_'
'commit_'
'combinaison_'
'col'
'coffee_'
'coal_'
'clarify_'
'chu'
'carrière_'
'capables_'
'camera_'
'calme_'
'bénéficient_'
'behaviour_'
'bande_'
'awarded_'
'aviation_'
'ative_'
'assumer_'
'assigned_'
'arise_'
'anniversary_'
'anniversaire_'
'ani'
'ana_'
'airports_'
'affecting_'
'adverse_'
'admissible_'
'adjustments_'
'adds_'
'achievements_'
'] [_'
'Whether_'
'Votre_'
'VO'
'Uruguay_'
'Tor'
'Sécurité_'
'Statistics_'
'Soudan_'
'She'
'SE'
'Reserve_'
'Rep'
'Reform_'
'Quel_'
'Projet_'
'Prevention_'
'Place_'
'PPE_'
'Os'
'Olympic_'
'OS_'
'OI'
'NEPAD_'
'Monetary_'
'Mali_'
'Mala'
'MS'
'MP_'
'Live_'
'Lithuania_'
'Lanka_'
'Land'
'Jusqu_'
'José_'
'James_'
'Insurance_'
'IONS_'
'Headquarters_'
'Guests_'
'GP'
'GH'
'For'
'Fondation_'
'Ex'
'Esta'
'EA'
'Dutch_'
'Du'
'Donc_'
'Disarmament_'
'Directorate_'
'Denmark_'
'Croatia_'
'Country_'
'Class_'
'Chile_'
'Caraïbes_'
'CANADA_'
'Ber'
'Ben_'
'Band'
'BO'
'Autriche_'
'Ai'
'AS_'
'AN'
'AI'
'99'
'78_'
'76'
'37'
'212_'
'1986_'
'192'
'/'
'))._'
'''_'
'" '
' «&_'
' ) _'
''
'ö'
'évaluations_'
'éra'
'équité_'
'électroniques_'
'élaboré_'
'échantillon_'
'È'
'zéro_'
'yesterday_'
'ye'
'witness_'
'vou'
'voies_'
'visas_'
'verification_'
'var'
'université_'
'unfortunately_'
'undermine_'
'ul'
'twice_'
'travellers_'
'travaillé_'
'transferts_'
'tom'
'to'
'titulaire_'
'terminer_'
'tent'
'tension_'
'subsidiary_'
'stressed_'
'ssion_'
'speakers_'
'speaker_'
'soviétique_'
'solely_'
'soin_'
'similaires_'
'savez_'
'salaire_'
'réglementaire_'
'rta'
'rp'
'rena'
'remplacement_'
'religieux_'
'recall_'
'ratified_'
'que'
'qualifiés_'
'père_'
'ption_'
'prévus_'
'prévoir_'
'propriétaire_'
'processed_'
'prescribed_'
'prenant_'
'pratiquement_'
'portent_'
'plays_'
'plaintes_'
'pin'
'piece_'
'personnelle_'
'permits_'
'pensent_'
'passée_'
'passengers_'
'partisans_'
'particulières_'
'participent_'
'paquets_'
'owners_'
'outlined_'
'oublier_'
'organizational_'
'ores_'
'op_'
'op'
'ology_'
'ode'
'occidental_'
'obviously_'
'nu'
'new'
'nets_'
'nel_'
'ncy_'
'naturellement_'
'nationality_'
'morale_'
'montants_'
'mono'
'mol'
'minibar_'
'miles_'
'matériels_'
'mat'
'manifest'
'mac'
'lowest_'
'lou'
'logy_'
'logistique_'
'lla_'
'lim'
'legally_'
'land'
'lancement_'
'justifier_'
'jurisdictions_'
'journalists_'
'journalistes_'
'jouent_'
'jeunesse_'
'ières_'
'ière_'
'izing_'
'isolation_'
'int_'
'indépendante_'
'incorporated_'
'incompatible_'
'incapacité_'
'in'
'illes_'
'hé'
'honourable_'
'hes_'
'hat'
'hardly_'
'handling_'
'gé'
'gen'
'furnished_'
'fournisseur_'
'fore'
'foot'
'fondées_'
'flo'
'fax_'
'fat'
'facto_'
'extérieures_'
'extradition_'
'exploit_'
'expensive_'
'exit_'
'everywhere_'
'essayer_'
'esc'
'equity_'
'entity_'
'enta'
'enjeux_'
'eng'
'endo'
'ences_'
'ela'
'ek_'
'ea_'
'duquel_'
'dose_'
'dons_'
'disputes_'
'disco'
'directs_'
'diminution_'
'devaient_'
'destroy_'
'derrière_'
'dangers_'
'credibility_'
'creative_'
'courte_'
'correction_'
'cor'
'conçu_'
'constraints_'
'constitutes_'
'constaté_'
'considèrent_'
'confort_'
'compléter_'
'commandes_'
'collected_'
'cm_'
'claimed_'
'cheap_'
'chapter_'
'chap_'
'can'
'borne_'
'bo_'
'bilan_'
'beds_'
'automobile_'
'attractions_'
'assessments_'
'assa'
'asi'
'army_'
'apporte_'
'appartient_'
'ancient_'
'améliorations_'
'allies_'
'ali'
'alcohol_'
'aa'
'Yes_'
'Wall_'
'WC_'
'Vietnam_'
'UNECE_'
'Tunisia_'
'Terr'
'Suite_'
'Star'
'Square_'
'Sim'
'Se_'
'Schengen_'
'Sch'
'SE_'
'Ré'
'Rotary_'
'Region_'
'Recalling_'
'RR'
'RI_'
'Publications_'
'Première_'
'Post'
'PME_'
'PM'
'OIT_'
'OA'
'Nuclear_'
'Ne_'
'Natural_'
'Mozambique_'
'Mad'
'Lettre_'
'LC'
'IL'
'Hungary_'
'Hor'
'Habitat_'
'Guinée_'
'Growth_'
'Ger'
'GST_'
'Fu'
'Find_'
'Fa'
'Documents_'
'DU'
'Coordination_'
'Ch'
'Ce'
'Capital_'
'CL'
'Bulgarie_'
'Black_'
'Bal'
'Assistant_'
'App'
'Ambassadeur_'
'About_'
'76_'
'61'
'57'
'1979_'
'1974_'
'1950_'
'...._'
'), (_'
'' '
'%) _'
' –_'
'…'
'е'
'ôt_'
'ía_'
'établie_'
'énergétiques_'
'écart_'
'Étant_'
'»'
'zi'
'ws_'
'wonderful_'
'warming_'
'ware_'
'vols_'
'visiting_'
'visent_'
'victory_'
'venu_'
'ui'
'u0027'
'té'
'tt'
'tors_'
'tobacco_'
'tis'
'thèmes_'
'tentatives_'
'ten'
'ta'
'swi'
'sur'
'supérieurs_'
'store_'
'stone_'
'stockage_'
'sso'
'spécialistes_'
'solve_'
'solides_'
'slightly_'
'similaire_'
'significative_'
'seemed_'
'secondaires_'
'scientists_'
'sac'
'répercussions_'
'réflexion_'
'rédaction_'
'river_'
'returning_'
'ressource_'
'respectively_'
'requiring_'
'requiert_'
'requesting_'
'repose_'
'renouvelables_'
'removed_'
'remind_'
'rem'
'reject_'
'regulated_'
'refuser_'
'reconnaît_'
'rating_'
'rai_'
'quin'
'qua'
'push_'
'pursued_'
'prête_'
'prés'
'promoted_'
'profession_'
'producer_'
'pri'
'pressures_'
'poursuit_'
'pou'
'positifs_'
'pli'
'ple'
'placer_'
'patterns_'
'partenaire_'
'para'
'oui_'
'ought_'
'organs_'
'ordinaires_'
'ordinaire_'
'opérationnel_'
'opportunité_'
'oe'
'oc'
'objets_'
'object_'
'noté_'
'notably_'
'nie_'
'neu'
'méta'
'mus'
'mountains_'
'morts_'
'mor'
'monuments_'
'ministérielle_'
'mi'
'mer'
'medicine_'
'meat_'
'mati'
'mariage_'
'mai'
'lés_'
'lundi_'
'lue'
'longues_'
'lon'
'lets_'
'lecteur_'
'leaves_'
'killing_'
'ker'
'joue_'
'ists_'
'industriels_'
'indiquent_'
'importantly_'
'ignorance_'
'iens_'
'ica'
'hotels_'
'hor'
'holders_'
'happening_'
'ham_'
'gra'
'gan_'
'ga'
'fédéraux_'
'franc_'
'fournie_'
'financé_'
'filed_'
'familiales_'
'facultatif_'
'exposés_'
'exploration_'
'eva'
'estimé_'
'entrepreneurs_'
'ent'
'enjoyed_'
'encourages_'
'eff'
'earth_'
'déterminée_'
'détection_'
'déposé_'
'déploiement_'
'démographique_'
'découlant_'
'dé'
'discussing_'
'discovered_'
'diplomacy_'
'dia'
'devenus_'
'destroyed_'
'democracies_'
'ct_'
'crédibilité_'
'courriel_'
'counter'
'corporation_'
'corner_'
'constantly_'
'consolider_'
'connaît_'
'conjunction_'
'confirmer_'
'complémentaires_'
'colour_'
'coastal_'
'cli'
'claimant_'
'civilians_'
'cia'
'char'
'chan'
'certes_'
'cells_'
'cards_'
'café_'
'bâtiments_'
'brings_'
'bla'
'bilatéraux_'
'begun_'
'ave'
'ateliers_'
'asiatique_'
'arriver_'
'appropriés_'
'appropriations_'
'approches_'
'appeler_'
'apparition_'
'answers_'
'amend_'
'alo'
'alliés_'
'alleged_'
'allant_'
'al'
'adopte_'
'accordingly_'
'accompanied_'
'accepte_'
'Yougoslavie_'
'Winnipeg_'
'Who_'
'Version_'
'Thursday_'
'TIR_'
'TI'
'TE'
'Sho'
'Several_'
'Sar'
'Sala'
'SF'
'Rio_'
'Res'
'Records_'
'Rather_'
'Qui_'
'Prix_'
'Plaza_'
'Pin'
'Pat'
'PP'
'PO'
'Optional_'
'OT'
'Nat'
'Nairobi_'
'Medical_'
'MS_'
'MC'
'Leur_'
'Kar'
'KE'
'Islands_'
'Intergovernmental_'
'Industrial_'
'Index_'
'Income_'
'ION_'
'IE'
'IA'
'Hol'
'HP_'
'HO'
'Gro'
'Gh'
'Garden_'
'Games_'
'Funds_'
'Fundamental_'
'Festival_'
'Eu'
'Em'
'ET'
'EE'
'Digital_'
'Developing_'
'Desjardins_'
'Crime_'
'Cre'
'Cra'
'Cour'
'Conf'
'Communities_'
'Commissariat_'
'Cit'
'Ci'
'Centres_'
'CB'
'Bou'
'BR'
'Aucun_'
'Among_'
'AL'
'98'
'77'
'53'
'48'
'41'
'36'
'350_'
'1990s_'
'08'
'01'
'+'
' - _'
''
''
'�'
'• '
'”_'
'”'
'р'
'êt'
'équivalent_'
'énergies_'
'élevées_'
'écrite_'
'âgés_'
'« _'
'«_'
' »'
' (_'
'yl_'
'ye_'
'work'
'wake_'
'voitures_'
'voi'
'vité_'
'videos_'
'vez_'
'vais_'
'vaccination_'
'universitaires_'
'undoubtedly_'
'ules_'
'ue'
'ud'
'trip_'
'trials_'
'trains_'
'traditionnel_'
'ths_'
'the'
'temporaire_'
'tali'
'systématiquement_'
'systematic_'
'syndicats_'
'suspected_'
'supporters_'
'sufficiently_'
'suffer_'
'subs'
'stupéfiants_'
'streets_'
'stars_'
'stabilisation_'
'ssions_'
'situés_'
'sinon_'
'shops_'
'seules_'
'septième_'
'sentiments_'
'sen'
'sei'
'season_'
'sco'
'sau'
'résulte_'
'roots_'
'roles_'
'rh'
'reçues_'
'reçoit_'
'ressort_'
'residents_'
'resident_'
'requérant_'
'remarques_'
'rd'
'rce'
'rati'
'rai'
'ract'
'racial_'
'quelles_'
'quasi_'
'quantities_'
'pêcheurs_'
'pé'
'prospect_'
'proposés_'
'profondément_'
'produisent_'
'primaire_'
'pretty_'
'preserve_'
'prefer_'
'prec'
'plats_'
'plane_'
'ph'
'periodic_'
'performed_'
'passenger_'
'parlements_'
'papier_'
'pairs_'
'ose'
'ore_'
'ordinateurs_'
'ont'
'ona'
'ologie_'
'oi'
'octroi_'
'occurring_'
'nés_'
'ny'
'none_'
'ninth_'
'nez_'
'ned_'
'nde'
'm²_'
'moderate_'
'mo_'
'mma'
'min'
'magnifique_'
'mad'
'légitime_'
'limité_'
'license_'
'lc'
'lac_'
'kar'
'judiciary_'
'journal_'
'jointly_'
'isi'
'irs_'
'ional_'
'intergouvernementales_'
'intense_'
'intend_'
'inquiétudes_'
'inquiète_'
'initiale_'
'inevitable_'
'indu'
'implies_'
'impa'
'ilité_'
'ili'
'ignore_'
'if'
'identifying_'
'ida'
'id'
'ici'
'humans_'
'hs_'
'hing_'
'hin'
'here'
'her'
'han_'
'géographique_'
'gratitude_'
'granting_'
'gift_'
'ged_'
'gathered_'
'gat'
'fy_'
'ft'
'formule_'
'finds_'
'fils_'
'faux_'
'fa'
'eye_'
'exposed_'
'explicitly_'
'existant_'
'exactement_'
'est'
'ering_'
'environmentally_'
'enterprise_'
'ene'
'ending_'
'enc'
'empire_'
'economically_'
'député_'
'démocraties_'
'décès_'
'durables_'
'driving_'
'drinks_'
'dominant_'
'domicile_'
'divorce_'
'dissemination_'
'disposal_'
'discipline_'
'dis'
'diminué_'
'diminuer_'
'diff'
'devise_'
'desirable_'
'currencies_'
'credits_'
'covers_'
'couverture_'
'couples_'
'correctly_'
'convaincre_'
'contraintes_'
'constate_'
'connus_'
'connaissent_'
'confronté_'
'condamné_'
'commissaires_'
'colon'
'cold_'
'coast_'
'clo'
'civiles_'
'circuit_'
'chrétiens_'
'channels_'
'carburant_'
'cana'
'campagnes_'
'bour'
'bor'
'boissons_'
'biologiques_'
'bb'
'bath_'
'award_'
'avion_'
'auberge_'
'au'
'ase'
'art'
'apportées_'
'apporté_'
'appartements_'
'annulation_'
'ane_'
'aménagement_'
'amongst_'
'ambi'
'ak_'
'ajoutée_'
'affects_'
'adopting_'
'admissibles_'
'administered_'
'adding_'
'acquitter_'
'acid_'
'accru_'
'accomplir_'
'Will_'
'Wii_'
'USB_'
'US'
'UL'
'Tre'
'Top_'
'Times_'
'Through_'
'Thomas_'
'Terre_'
'Team_'
'Tal'
'TELUS_'
'Sun_'
'Sou'
'Singapore_'
'Sin'
'Search_'
'SMEs_'
'Rou'
'Risk_'
'RT'
'RES_'
'Qua'
'Pu'
'Province_'
'Property_'
'Professional_'
'Process_'
'Play'
'Pierre_'
'Ph'
'Permettez_'
'Pay'
'Pas_'
'Part'
'Para'
'Palais_'
'PN'
'Oui_'
'Off'
'Net'
'Multi'
'Mor'
'Mont'
'Maroc_'
'Mahmoud_'
'Ma_'
'MP'
'MI'
'MENT_'
'Lula_'
'Location_'
'Local_'
'Lab'
'Kha'
'Joseph_'
'Johannesburg_'
'Indi'
'ISO_'
'ING_'
'Hour_'
'Hel'
'HI'
'Gestion_'
'Geo'
'Ga'
'GU'
'Form_'
'Finances_'
'Experts_'
'Enjoy_'
'Edition_'
'ES'
'ED'
'Danemark_'
'Cultural_'
'Cop'
'Chinois_'
'Change_'
'Certes_'
'Casino_'
'Canadiennes_'
'Can'
'CI_'
'Building_'
'Bosnia_'
'Beach_'
'Be_'
'Ayant_'
'Avis_'
'Arts_'
'Arr'
'Appeal_'
'Annual_'
'Afghan_'
'Accordingly_'
'AU_'
'AK'
'>'
'94'
'87'
'75'
'69'
'67'
'65'
'63'
'56'
'55'
'35'
'1981_'
'190'
'180_'
'..." _'
') : _'
'', _'
'!'
' − _'
' » '
' ;_'
' : (_'
' "..._'
''
''
'’._'
'ü'
'éventail_'
'éva'
'étais_'
'équipées_'
'électoral_'
'égi'
'ég'
'ÉR'
'yr'
'yn'
'wrote_'
'we'
'war'
'voulez_'
'voici_'
'viande_'
'veri'
'ventes_'
'veness_'
'vendredi_'
'venant_'
'urgency_'
'uo'
'uns'
'unprecedented_'
'unlike_'
'unity_'
'unilateral_'
'unification_'
'underway_'
'un'
'uli'
'télé'
'trouvant_'
'treat_'
'tragedy_'
'tourner_'
'tone_'
'tolérance_'
'tm'
'théorie_'
'texts_'
'textile_'
'terror_'
'tar'
'talent_'
'tackle_'
'symbol_'
'surely_'
'super'
'suffisante_'
'subjects_'
'strike_'
'stories_'
'stages_'
'soutiennent_'
'soumise_'
'situe_'
'sement_'
'sel'
'schemes_'
'sanitaires_'
'sai'
'safeguard_'
'révélé_'
'révisé_'
'rétablissement_'
'réglementaires_'
'réagir_'
'rs'
'ris'
'rie'
'retrouve_'
'retained_'
'resort_'
'reproductive_'
'reply_'
'renovated_'
'renforcé_'
'refus_'
'recourir_'
'recognised_'
'rece'
'realistic_'
'rant_'
'quotidienne_'
'qualifications_'
'purchased_'
'préparatoire_'
'précédente_'
'précision_'
'provenance_'
'protégés_'
'prostitution_'
'profondes_'
'professionnel_'
'primaires_'
'pricing_'
'prescription_'
'preparatory_'
'possibilities_'
'portefeuille_'
'poorest_'
'politiciens_'
'po_'
'pilotes_'
'pierre_'
'phones_'
'persistent_'
'pea'
'ova'
'optional_'
'onto_'
'ome'
'officiellement_'
'offences_'
'objects_'
'objection_'
'négatif_'
'nécessairement_'
'nted_'
'negotiate_'
'nati'
'métro_'
'mou'
'militants_'
'maximale_'
'manufacture_'
'macroeconomic_'
'ly'
'log'
'library_'
'lettres_'
'leads_'
'laboratoire_'
'lab'
'ji_'
'jan'
'iz'
'ish_'
'inégalités_'
'invités_'
'invent'
'intérieures_'
'integral_'
'int'
'institutionnels_'
'instant_'
'inspections_'
'inscription_'
'indemnisation_'
'imported_'
'ignored_'
'ie'
'idi'
'hundreds_'
'hospitals_'
'hospital_'
'hoo'
'hier_'
'hi_'
'hauteur_'
'handed_'
'guère_'
'guilty_'
'greenhouse_'
'grateful_'
'grain_'
'gne_'
'gh_'
'gestionnaires_'
'ger'
'generations_'
'fé'
'freely_'
'frame_'
'fournissent_'
'forests_'
'fleet_'
'fixer_'
'fixe_'
'fiabilité_'
'ff'
'feuille_'
'fell_'
'feed_'
'fee_'
'favor_'
'facilitation_'
'export'
'expanding_'
'exceed_'
'evolution_'
'eta'
'estimation_'
'ero'
'ere'
'enregistrés_'
'ennes_'
'endroits_'
'endorse_'
'emphasise_'
'ema'
'edge_'
'détermination_'
'désigné_'
'démontré_'
'douche_'
'donors_'
'dites_'
'districts_'
'disk_'
'disa'
'dil'
'dic'
'devises_'
'destinée_'
'designs_'
'demandeurs_'
'definitions_'
'defend_'
'defeat_'
'deaths_'
'de'
'dan'
'côte_'
'cru'
'creates_'
'cre'
'cosy_'
'continental_'
'consolidate_'
'consequence_'
'confidentialité_'
'conf'
'concernent_'
'concepts_'
'compétents_'
'comprises_'
'complicated_'
'competitors_'
'compare_'
'colleague_'
'clientèle_'
'citoyenneté_'
'citoyen_'
'citizenship_'
'cies_'
'chinoise_'
'checks_'
'chargés_'
'charbon_'
'chain_'
'ce'
'bulletin_'
'broadly_'
'brevet_'
'bon'
'blanc_'
'bill_'
'bil'
'bedrooms_'
'bateaux_'
'bataille_'
'avancée_'
'authors_'
'augmente_'
'audience_'
'attentats_'
'arrived_'
'appr'
'ap'
'and'
'ain_'
'aimerais_'
'aid'
'afford_'
'acknowledged_'
'accordé_'
'accept'
'Zi'
'Win'
'Village_'
'Video_'
'VA'
'Tour_'
'Th'
'Tan'
'TVH_'
'TS_'
'TR'
'TA_'
'Survey_'
'Super'
'Slovakia_'
'Skype_'
'Senior_'
'Self_'
'Sciences_'
'Salvador_'
'SC'
'Rien_'
'Richard_'
'Reports_'
'Pérou_'
'Ps_'
'Programs_'
'Product_'
'Pres'
'Premièrement_'
'Pra'
'Peru_'
'Patrimoine_'
'Patent_'
'Past'
'Parliamentary_'
'PER'
'Nicolas_'
'Newfoundland_'
'Name_'
'Musée_'
'Med'
'Meanwhile_'
'Make_'
'MAR'
'Letter_'
'Lar'
'Languages_'
'Keynes_'
'Kazakhstan_'
'Journée_'
'Jewish_'
'Hague_'
'HST_'
'Géorgie_'
'GE_'
'Funding_'
'Franc'
'Firstly_'
'Film_'
'Ethiopia_'
'EE_'
'Durant_'
'Does_'
'DR'
'DP_'
'Copyright_'
'Competition_'
'Chávez_'
'Chili_'
'Char'
'Catholic_'
'CF_'
'CA_'
'Bur'
'Budgetary_'
'Bu'
'Bru'
'Bir'
'Ban'
'BP'
'Ath'
'Articles_'
'Arm'
'Arabie_'
'Anti_'
'Anti'
'And'
'Ale'
'AG'
'AF'
'AA'
':'
'97'
'9'
'87_'
'86'
'85'
'82'
'78'
'74'
'59'
'205_'
'189'
'103_'
'05'
'.&_'
' ] _'
''
'с'
'и'
'étiquetage_'
'émergents_'
'élargir_'
'économistes_'
'â_'
'Écosse_'
'¨_'
' ;_'
'{_'
'yl'
'xa'
'withdrawal_'
'withdraw_'
'winning_'
'wind_'
'wave_'
'vot'
'voient_'
'veto_'
'vent_'
'vendre_'
'vement_'
'varied_'
'valable_'
'usual_'
'uranium_'
'tu'
'traduit_'
'tou'
'tons_'
'tolerance_'
'tle_'
'tis_'
'tifs_'
'thirty_'
'thirds_'
'tea'
'taxi_'
'tation_'
'sérieusement_'
'séparation_'
'systemic_'
'symptômes_'
'sustained_'
'surprise_'
'suprême_'
'super_'
'succession_'
'subvention_'
'subir_'
'ste'
'stagnation_'
'sson_'
'ssant_'
'sold_'
'sna'
'sle'
'skin_'
'sive_'
'signes_'
'signalé_'
'shortly_'
'short'
'sheets_'
'serves_'
'sensibiliser_'
'secondaire_'
'seats_'
'scrutin_'
'schedule_'
'sc_'
'saisi_'
'sab'
'résumé_'
'réservation_'
'réductions_'
'réalisations_'
'ré_'
'ré'
'rum_'
'rues_'
'ros'
'rm'
'rices_'
'reçoivent_'
'revêt_'
'reviewing_'
'revealed_'
'ressortissants_'
'responded_'
'respected_'
'repeat_'
'rend'
'remarquer_'
'relancer_'
'regardless_'
'reg'
'ree'
'realize_'
'rb'
'rares_'
'ralentissement_'
'ral_'
'quit'
'quent_'
'pur'
'préjudice_'
'précises_'
'provider_'
'prouvé_'
'programmation_'
'profound_'
'profil_'
'proches_'
'printed_'
'pourrons_'
'pour'
'portable_'
'pointe_'
'plate_'
'planet_'
'pie'
'pick_'
'phrase_'
'permettront_'
'peri'
'pencher_'
'parliaments_'
'pare'
'paras_'
'pacte_'
'oxy'
'osi'
'ong'
'ok_'
'ok'
'oire_'
'offert_'
'obliged_'
'nne_'
'nic'
'nettoyage_'
'nearby_'
'ndr'
'named_'
'moteurs_'
'montagne_'
'modest_'
'mm'
'missiles_'
'metro_'
'mere_'
'men'
'meets_'
'measured_'
'meal_'
'mandatory_'
'malaria_'
'looked_'
'lived_'
'liquidity_'
'liquid'
'liberalisation_'
'lib'
'leçons_'
'lawyers_'
'lancée_'
'laissé_'
'knew_'
'justify_'
'justified_'
'jugement_'
'judgment_'
'jo'
'ités_'
'intégrés_'
'intensive_'
'inférieur_'
'indépendants_'
'individuels_'
'indiquant_'
'incon'
'incluant_'
'inca'
'impressive_'
'impl'
'imaginer_'
'illicit_'
'il'
'hôte_'
'hébergement_'
'hy'
'hunger_'
'hon'
'holiday_'
'highlight_'
'headed_'
'gross_'
'gratuit_'
'graphique_'
'gna'
'gli'
'gle'
'gg'
'garantit_'
'fréquence_'
'fri'
'forums_'
'fonctionnalités_'
'flag_'
'fiscales_'
'finished_'
'filled_'
'fat_'
'familiar_'
'fairly_'
'fails_'
'extra'
'exporter_'
'exigence_'
'exclusivement_'
'exchanges_'
'excellente_'
'examining_'
'estate_'
'erg'
'ered_'
'envergure_'
'entraîné_'
'entière_'
'enseignants_'
'ense'
'emprisonnement_'
'emphasized_'
'emerged_'
'em_'
'ell_'
'ein'
'een_'
'eco'
'ear'
'détaillées_'
'déplacement_'
'dépasse_'
'déc'
'débattre_'
'dy'
'doutes_'
'donnant_'
'dispositifs_'
'displayed_'
'dirigeant_'
'din'
'différends_'
'dial_'
'describe_'
'dep'
'def'
'decides_'
'dece'
'cum'
'créée_'
'créant_'
'crop_'
'couleurs_'
'cope_'
'constante_'
'considérées_'
'considerations_'
'conseiller_'
'conducting_'
'concrets_'
'computers_'
'compete_'
'coherent_'
'classique_'
'cla'
'citer_'
'cis'
'cin'
'changé_'
'certainty_'
'catch_'
'cad'
'buts_'
'bur'
'brutal_'
'booking_'
'bit'
'biological_'
'bet'
'beauty_'
'autorisé_'
'autonomie_'
'automatic_'
'auspices_'
'aurez_'
'atténuer_'
'ath'
'atelier_'
'assessing_'
'ascenseur_'
'arrière_'
'arrest_'
'approve_'
'apport_'
'applying_'
'appartenance_'
'annuels_'
'ami'
'ambition_'
'ambitieux_'
'ale'
'air'
'ai'
'aggregate_'
'aged_'
'admis_'
'ac_'
'abuses_'
'`_'
'Xbox_'
'Well_'
'WHO_'
'WA'
'Until_'
'Type_'
'Trois_'
'Tro'
'Tony_'
'Tha'
'Tableau_'
'TP'
'T4'
'Sul'
'Studies_'
'Stu'
'Standard_'
'Solana_'
'Similarly_'
'Should_'
'Senate_'
'Seigneur_'
'Salle_'
'SS_'
'SD'
'Roman_'
'Resolution_'
'Relations_'
'Red'
'Recherche_'
'RP_'
'RP'
'Quelle_'
'Quality_'
'Puis_'
'Proc'
'Poutine_'
'Po'
'Pla'
'PU'
'POUR_'
'PE_'
'Outre_'
'Out_'
'Numéro_'
'NA_'
'Movement_'
'Minutes_'
'Mil'
'Micro'
'Mexican_'
'Main_'
'Mah'
'MHz_'
'MB_'
'Long_'
'Located_'
'Libye_'
'Len'
'Lei'
'Kremlin_'
'Kirk_'
'Kat'
'Item_'
'Introduction_'
'Ibid_'
'IO'
'IBM_'
'Hon'
'Hand'
'Han'
'Get_'
'GN'
'Fifth_'
'FS'
'FOR_'
'Examen_'
'Empire_'
'EX'
'ENT_'
'Donald_'
'Discrimination_'
'Directors_'
'DS'
'DC'
'Consumer_'
'Conduct_'
'Compliance_'
'College_'
'Chan'
'Cap'
'Cal'
'Cabinet_'
'CON'
'CEO_'
'Bus'
'Budapest_'
'Blue_'
'Bell_'
'BM'
'Autre_'
'Audit_'
'Assessment_'
'Albania_'
'Ala'
'Air'
'ASEAN_'
'> _'
';?_'
'91'
'89'
'84'
'81'
'60'
'360_'
'26'
'1978_'
'1967_'
'1373_'
'115_'
'1000_'
'100'
'02'
'.  _'
') – _'
'%'
''
'’'
'ési'
'én'
'ément_'
'électro'
'église_'
'échantillons_'
'°_'
'~_'
'zz'
'zar'
'yo'
'ym'
'wise_'
'whereby_'
'welcoming_'
'vit_'
'visitors_'
'vin'
'victim_'
'vessels_'
'validation_'
'ut'
'ure'
'undertakings_'
'ult'
'ula'
'uk'
'uis'
'tue'
'trouble_'
'trillion_'
'tree_'
'transf'
'title_'
'tic'
'tenus_'
'tea_'
'taught_'
'tap'
'sés_'
'séminaires_'
'sée_'
'séances_'
'swimming_'
'survive_'
'survie_'
'surmonter_'
'surgi'
'suppose_'
'sul'
'suggestion_'
'subsidiarité_'
'striking_'
'stre'
'stopped_'
'stic_'
'spo'
'spaces_'
'souci_'
'sondages_'
'solde_'
'socialiste_'
'slow_'
'sli'
'ski'
'simultanément_'
'signing_'
'sie'
'she'
'sexuels_'
'sensitivity_'
'segment_'
'seconds_'
'scénarios_'
'screening_'
'score_'
'saison_'
'saine_'
'réunir_'
'réduisant_'
'réci'
'règne_'
'rt'
'ron'
'rivière_'
'rid_'
'richesse_'
'rich'
'revision_'
'restructuration_'
'reservations_'
'remo'
'remarque_'
'remarquable_'
'relates_'
'rejection_'
'ref'
'reductions_'
'recruitment_'
'recon'
'reasonably_'
'readily_'
'rapides_'
'ranging_'
'range'
'quota_'
'quitter_'
'quat'
'quantités_'
'pursuit_'
'purely_'
'purchasing_'
'punishment_'
'puissances_'
'psycho'
'préservation_'
'préliminaire_'
'prohibited_'
'profonde_'
'proc'
'pressing_'
'prenantes_'
'preferred_'
'power'
'positives_'
'pol'
'poissons_'
'pleasure_'
'ple_'
'play'
'pilot_'
'pic'
'photo'
'phases_'
'permission_'
'perceived_'
'pel_'
'pauvre_'
'passing_'
'partition_'
'pari'
'ote_'
'ot'
'orn'
'odi'
'occurrence_'
'occidentale_'
'oca'
'objections_'
'nutrition_'
'nna'
'ner'
'multinational_'
'motif_'
'mot'
'mos'
'module_'
'mobiliser_'
'mistake_'
'ministerial_'
'mid'
'meters_'
'measurement_'
'mas'
'marge_'
'mani'
'légèrement_'
'légale_'
'luxe_'
'lp'
'lle'
'livraison_'
'listen_'
'liquidités_'
'likelihood_'
'lev'
'lesson_'
'lem'
'lea'
'lation_'
'late'
'kt'
'kl'
'kit_'
'ke'
'judiciaires_'
'journey_'
'ive'
'ito'
'ities_'
'investi'
'invested_'
'intéressées_'
'intimidation_'
'integrate_'
'instability_'
'insister_'
'initially_'
'inhabitants_'
'infringement_'
'informés_'
'individually_'
'incombe_'
'inclusive_'
'incident_'
'incentive_'
'importer_'
'imb'
'illa'
'ig_'
'ied_'
'ic'
'hood_'
'handicapées_'
'han'
'hair_'
'h00_'
'grade_'
'gouverneur_'
'generating_'
'gard'
'fun_'
'frequency_'
'fre'
'fra'
'foyers_'
'foundations_'
'fortune_'
'formulées_'
'forestry_'
'foods_'
'firstly_'
'fication_'
'ferr'
'fate_'
'faisait_'
'faim_'
'extérieurs_'
'exiger_'
'excédent_'
'excuse_'
'excluded_'
'exciting_'
'evident_'
'essentielles_'
'esp'
'era'
'endorsed_'
'ena'
'employeur_'
'electro'
'ei'
'earned_'
'dûment_'
'déséquilibres_'
'désir_'
'dépendance_'
'driver_'
'doubles_'
'dominated_'
'doctrine_'
'dm'
'dizaines_'
'disparition_'
'disclosure_'
'disabled_'
'dis_'
'différente_'
'devoted_'
'devo'
'deb'
'deals_'
'dark_'
'damaging_'
'cting_'
'créés_'
'crossing_'
'croit_'
'critère_'
'credible_'
'couvrir_'
'cour_'
'counselling_'
'converti'
'convenu_'
'contradiction_'
'continué_'
'contemporary_'
'constat'
'considerably_'
'consacrée_'
'connections_'
'conformity_'
'conduire_'
'comportements_'
'comm'
'combler_'
'clauses_'
'classified_'
'clarification_'
'claires_'
'civilisation_'
'church_'
'cere'
'cer'
'cell_'
'causé_'
'causing_'
'cations_'
'cargo_'
'capitalisme_'
'buying_'
'boat_'
'blue_'
'ble'
'blame_'
'bis'
'belonging_'
'belles_'
'axée_'
'automobiles_'
'aurons_'
'attract_'
'ats_'
'ast'
'arm'
'ari'
'approfondie_'
'appro'
'appren'
'appliquées_'
'appelée_'
'apparently_'
'apparaît_'
'aper'
'ang'
'amour_'
'am'
'allowance_'
'allo'
'alliances_'
'allemande_'
'ajoute_'
'agissait_'
'affirmer_'
'ado_'
'adapted_'
'acknowledge_'
'ach'
'accorde_'
'accompagné_'
'acceptation_'
'academic_'
'abandoned_'
']'
'XI'
'Works_'
'Wednesday_'
'Wa'
'WH'
'WE'
'Vienna_'
'Vi'
'VAT_'
'UNEP_'
'Trésor_'
'Travail_'
'Thaïlande_'
'Terrorism_'
'TF'
'Système_'
'Syn'
'Symantec_'
'Study_'
'Spirit_'
'Southern_'
'Sir_'
'Series_'
'Sector_'
'Sales_'
'Sal'
'SM'
'SL'
'Right_'
'Ressources_'
'Recent_'
'Rece'
'Rate_'
'RSS_'
'RS'
'Qatar_'
'Proactive_'
'Premières_'
'Population_'
'Original_'
'Opportunities_'
'Online_'
'Ombudsman_'
'Oil_'
'OU'
'OD'
'Next_'
'Nation_'
'NS'
'NPT_'
'NO_'
'Mugabe_'
'Mos'
'Mel'
'Measures_'
'Me'
'Mari'
'Map'
'MONUC_'
'MM'
'Land_'
'Lan'
'Ju'
'Jesus_'
'Jerusalem_'
'Inter_'
'Ing'
'INTER'
'IG'
'Help_'
'Heads_'
'Hau'
'Gentoo_'
'Ge'
'GRA'
'Full_'
'Fra'
'Forest_'
'Flo'
'Fer'
'FR'
'FC_'
'Ensuite_'
'Eng'
'Eco'
'END'
'EF'
'District_'
'Disclosure_'
'Der'
'Democracy_'
'Decides_'
'DO_'
'DA_'
'Copenhagen_'
'Communist_'
'Cho'
'Camp'
'CAN_'
'Burma_'
'Botswana_'
'Bla'
'Berlusconi_'
'Bene'
'Bah'
'BS'
'B5_'
'Az'
'Ann'
'Angleterre_'
'Analysis_'
'Algérie_'
'Abbas_'
'AV'
'AF_'
'72'
'1984_'
'1983_'
'1930_'
'109_'
'.  _'
'-'
'() _'
' €_'
' »'
' ['
' -, _'
' + _'
' '
''
' '
'ó'
'équilibrée_'
'épreuve_'
'émis_'
'électriques_'
'écouter_'
'» (_'
'|_'
'you'
'writer_'
'wood'
'wished_'
'whi'
'wherever_'
'wer'
'ward_'
'volet_'
'volatile_'
'vity_'
'visites_'
'vis'
'vies_'
'vide_'
'vi_'
'vet'
'versus_'
'vastes_'
'utilization_'
'utilité_'
'urge_'
'unto_'
'unnecessary_'
'united_'
'und'
'unb'
'ulé'
'ug'
'ua'
'typically_'
'twelve_'
'tub'
'tta'
'ts'
'transmitted_'
'trailer_'
'tirés_'
'timing_'
'timetable_'
'tif_'
'tiennent_'
'tiendra_'
'tie_'
'threatened_'
'termina'
'tendant_'
'tele'
'tati'
'tas'
'tarifs_'
'taire_'
'swe'
'suspension_'
'suggéré_'
'sucre_'
'successes_'
'stuff_'
'structurels_'
'stri'
'stra'
'stores_'
'stood_'
'spot_'
'spoken_'
'spiritual_'
'spi'
'speeches_'
'spe'
'soutiens_'
'sortes_'
'son'
'sols_'
'solid_'
'sole_'
'soldiers_'
'solaire_'
'sions_'
'segments_'
'sd'
'scénario_'
'script_'
'saurait_'
'satisfait_'
'satisfactory_'
'sam'
'salary_'
'régulation_'
'rédigé_'
'rub'
'row_'
'roughly_'
'ria_'
'rg'
'revue_'
'retrouver_'
'restrictive_'
'resta'
'respectivement_'
'requises_'
'renewal_'
'rendant_'
'remis_'
'remarkable_'
'rely_'
'regarded_'
'red'
'receipt_'
'rch'
'rance_'
'ran_'
'rage_'
'racisme_'
'périodiques_'
'purchases_'
'pull_'
'puissants_'
'publiés_'
'présidentielle_'
'protests_'
'propriétaires_'
'progressivement_'
'procédé_'
'preparations_'
'pregnant_'
'pp'
'poursuites_'
'posted_'
'posed_'
'phi'
'pha'
'ph_'
'ped_'
'ped'
'pay'
'password_'
'parfait_'
'ov_'
'orm'
'ori'
'ordered_'
'opposants_'
'occidentaux_'
'négocier_'
'nécessite_'
'numériques_'
'nevertheless_'
'neighbors_'
'negotiation_'
'necessity_'
'naturels_'
'naturelle_'
'nai'
'médicale_'
'mène_'
'mur'
'mp_'
'moves_'
'modeste_'
'mobilisation_'
'missile_'
'minorité_'
'minor_'
'milieux_'
'mem'
'med_'
'meaningful_'
'marqué_'
'mang'
'manager_'
'mainstreaming_'
'lé_'
'losing_'
'loisirs_'
'locally_'
'liquid_'
'lift_'
'libération_'
'let'
'lac'
'label_'
'kinds_'
'kin_'
'kha'
'israélienne_'
'ise'
'irré'
'inviter_'
'inu'
'intitulée_'
'interference_'
'interdire_'
'intensité_'
'instaurer_'
'install'
'insist_'
'individuelles_'
'inadequate_'
'inacceptable_'
'impliqués_'
'ime_'
'ille'
'ik'
'ideology_'
'ict'
'hus'
'hr'
'hostels_'
'hol'
'hiver_'
'hc_'
'has'
'ham'
'hall_'
'guerres_'
'gro'
'gratuite_'
'gin'
'gh'
'gene'
'gaps_'
'gal'
'fu'
'free'
'forthcoming_'
'fortes_'
'formé_'
'formula_'
'focuses_'
'flights_'
'fixés_'
'fix_'
'faster_'
'faiblesse_'
'facilitating_'
'expliqué_'
'expe'
'exemplaire_'
'exceptionnel_'
'everyday_'
'escape_'
'ep'
'eo'
'engine_'
'enf'
'emballage_'
'ek'
'ee_'
'ecological_'
'eat_'
'eastern_'
'détruire_'
'détaillé_'
'dél'
'définitions_'
'définies_'
'débatt'
'déb'
'dra_'
'dr'
'douanes_'
'dos_'
'doors_'
'dit'
'disque_'
'disc'
'devienne_'
'demandons_'
'defining_'
'dee'
'decorated_'
'decisive_'
'debts_'
'dat'
'cus'
'cui'
'cross'
'cri'
'crew_'
'court'
'costly_'
'coordinating_'
'coordinate_'
'convenient_'
'contribuable_'
'contenus_'
'considérations_'
'concurrentiel_'
'con'
'complement_'
'competing_'
'communicate_'
'commencement_'
'colonies_'
'cle_'
'cine'
'charming_'
'cessé_'
'cessation_'
'cellules_'
'cel'
'cease_'
'carrier_'
'caractères_'
'cant'
'camp'
'calendar_'
'bénéfice_'
'bâtiment_'
'busy_'
'bud'
'brief_'
'bran'
'billions_'
'bid_'
'bes_'
'bel'
'bee'
'beauté_'
'bateau_'
'ball_'
'aye'
'axe_'
'awa'
'autoroute_'
'autorisée_'
'austerity_'
'attendent_'
'attendant_'
'ate'
'assorti'
'assister_'
'assign'
'asiatiques_'
'array_'
'arde'
'arbitrary_'
'appuyant_'
'appearance_'
'apartment_'
'apart_'
'annoncer_'
'ame'
'allegations_'
'alla'
'alike_'
'ala'
'ajustements_'
'ajouté_'
'ais'
'agence_'
'adulte_'
'adult_'
'adapt_'
'actualité_'
'acides_'
'achats_'
'accusé_'
'accounted_'
'ac'
'abolition_'
'ably_'
'Zu'
'XXIe_'
'Woods_'
'Wi'
'Vienne_'
'Va'
'Using_'
'Unlike_'
'Universal_'
'UT'
'UR'
'Tokyo_'
'Thi'
'Thailand_'
'Territory_'
'Territories_'
'Swedish_'
'Sunday_'
'Sun'
'Sub'
'Spi'
'Smith_'
'Session_'
'Senegal_'
'Schedule_'
'Sara'
'Sand'
'Round_'
'Rob'
'Rev_'
'Resource_'
'Read_'
'Radio_'
'Rad'
'RU'
'ROM_'
'RD_'
'RD'
'Quelles_'
'Queen_'
'Privacy_'
'Prie_'
'Planning_'
'Perhaps_'
'Paragraphe_'
'PSE_'
'PRE'
'PR'
'PL_'
'PES'
'PAC_'
'Ou'
'Operations_'
'Ob'
'Nor'
'Nom_'
'Music_'
'Mondiale_'
'Monaco_'
'Military_'
'Mid'
'Mark_'
'Malta_'
'Malaysia_'
'Leste_'
'Koweït_'
'Ker'
'Informations_'
'Herzégovine_'
'Herzegovina_'
'Hen'
'Gui'
'Goals_'
'Gender_'
'G8_'
'Fran'
'Fr'
'Four_'
'Final_'
'FC'
'Extra'
'Eritrea_'
'Environnement_'
'Election_'
'Egyptian_'
'Edit'
'Dublin_'
'Disc'
'Die'
'Darfur_'
'Dar'
'DM'
'DIS'
'Croatie_'
'Copenhague_'
'Consult'
'Comp'
'Chu'
'CS_'
'COD_'
'CAMBRIDGE_'
'Brazilian_'
'Bon'
'Bol'
'Belgique_'
'Base_'
'Azerbaijan_'
'At'
'Ash'
'Armenia_'
'Amendments_'
'Ama'
'Ahmadinejad_'
'Ah'
'Agricultural_'
'ASFC_'
'AA_'
'; _'
'963_'
'70'
'64'
'201_'
'1973_'
'194'
'18'
'170_'
'125_'
'102_'
'00'
'.” _'
'.&#_'
'  _'
' `_'
' ("_'
' %) _'
'▪ _'
'™ _'
'в'
'ô'
'ï_'
'établit_'
'énoncés_'
'écrire_'
'éclair'
'ès_'
'yd'
'worthy_'
'workforce_'
'winter_'
'wine_'
'willingness_'
'weekly_'
'vulnerability_'
'voyage'
'volontaires_'
'vo_'
'vivement_'
'vert'
'vers'
'vend'
'vas'
'vary_'
'variation_'
'uté'
'uro'
'urgently_'
'unp'
'uniques_'
'uniform_'
'unanimité_'
'télécharger_'
'tz_'
'twentieth_'
'truct'
'translation_'
'transferred_'
'trans_'
'tr'
'tow'
'touchés_'
'touch_'
'tiré_'
'tim'
'threatening_'
'thorough_'
'tet'
'tennis_'
'telecommunications_'
'tard'
'suspect_'
'suppliers_'
'supplement_'
'superior_'
'sup'
'suivent_'
'sui'
'succeeded_'
'studio_'
'structurelles_'
'strai'
'stimuler_'
'stag'
'ssai'
'sphere_'
'sp'
'soulevées_'
'soleil_'
'smi'
'sme'
'siècles_'
'sg'
'sexuelles_'
'servant_'
'serre_'
'seminar_'
'selling_'
'secured_'
'sco_'
'sch_'
'scenario_'
'satisfied_'
'salariés_'
'salaries_'
'rétablir_'
'réserv'
'réputation_'
'réjouis_'
'rubrique_'
'rse'
'rre'
'rop'
'roll_'
'rod'
'rme'
'restr'
'restoration_'
'repeatedly_'
'repair_'
'rep'
'rendus_'
'rendez_'
'removal_'
'releases_'
'relaxation_'
'registres_'
'registre_'
'recueillir_'
'recording_'
'recognizes_'
'rechercher_'
'ray_'
'rational_'
'ratifier_'
'rat'
'rain'
'radiation_'
'raci'
'quer_'
'quarante_'
'quantitative_'
'quai'
'périphériques_'
'pul'
'ptions_'
'pt_'
'pt'
'préférable_'
'prudence_'
'proud_'
'protocoles_'
'properties_'
'prop'
'profite_'
'procédés_'
'procurement_'
'privatisation_'
'pregnancy_'
'precious_'
'pourrions_'
'potable_'
'posé_'
'port'
'porc'
'por'
'plantes_'
'plafond_'
'pil'
'pictures_'
'pet'
'pers_'
'permettez_'
'performing_'
'pensée_'
'parvenus_'
'partially_'
'parallel_'
'pa_'
'ow_'
'overview_'
'oversight_'
'ous'
'oti'
'ota'
'ost'
'ose_'
'orientale_'
'organisées_'
'organic_'
'orat'
'opi'
'onde'
'omi'
'occupy_'
'occupa'
'notified_'
'normalement_'
'nomi'
'nf'
'nettement_'
'nci'
'nationalism_'
'nal'
'mutually_'
'museum_'
'motor_'
'moto'
'montée_'
'moni'
'momentum_'
'mix_'
'missing_'
'ministry_'
'mens'
'manuel_'
'manu'
'male_'
'mala'
'lu_'
'loo'
'lles_'
'lif'
'lf_'
'lau'
'lake_'
'laissant_'
'ladite_'
'lacunes_'
'labelling_'
'kilometres_'
'kes_'
'joueur_'
'japonaise_'
'ié'
'ivi'
'iu'
'isse'
'ison_'
'isolated_'
'islamistes_'
'iser_'
'iranien_'
'ip_'
'investigate_'
'intégrité_'
'interm'
'intergouvernementale_'
'interactive_'
'institutionnelle_'
'instabilité_'
'insolvency_'
'inputs_'
'injured_'
'inherent_'
'info_'
'infer'
'industrialisés_'
'incorporate_'
'incertitude_'
'inad'
'impasse_'
'immédiat_'
'immigrant_'
'ile_'
'ignorer_'
'iel_'
'ian'
'hôtels_'
'hôpital_'
'héritage_'
'hyper'
'home'
'heavily_'
'headquarters_'
'harmful_'
'hall'
'hai'
'gènes_'
'guaranteeing_'
'governed_'
'gn'
'gio'
'gets_'
'gestionnaire_'
'gel_'
'frères_'
'froide_'
'fitness_'
'firmly_'
'fini'
'fier_'
'fied_'
'fibres_'
'fiables_'
'feuilles_'
'feront_'
'fermeture_'
'fashion_'
'fare_'
'far'
'fan'
'familial_'
'fallen_'
'fal'
'exécuter_'
'extending_'
'expressions_'
'expressing_'
'expresses_'
'expos'
'explosion_'
'existait_'
'examens_'
'ex'
'es'
'eon'
'envisage_'
'entrave'
'entité_'
'enthousiasme_'
'ennemis_'
'encourageant_'
'employ'
'emission_'
'emi'
'emerge_'
'embargo_'
'effondrement_'
'ease_'
'dépenser_'
'dépens'
'dépasser_'
'département_'
'dég'
'découverte_'
'décideurs_'
'décide_'
'duc'
'dre_'
'dramatically_'
'dramatic_'
'douze_'
'doter_'
'donn'
'domination_'
'dle'
'divided_'
'discretion_'
'directes_'
'dinner_'
'dictatorship_'
'df'
'detainees_'
'det'
'deployed_'
'denied_'
'demeurent_'
'declining_'
'dec'
'côtés_'
'cy'
'créanciers_'
'courante_'
'coup'
'count'
'counsel_'
'corriger_'
'coordonner_'
'conçus_'
'controlling_'
'contribuables_'
'contest_'
'constamment_'
'consolidated_'
'consistant_'
'conjointe_'
'confortables_'
'condemned_'
'condamnés_'
'comprise_'
'compos'
'complexité_'
'compilation_'
'commencent_'
'color_'
'cite_'
'circle_'
'cie'
'chronic_'
'choc_'
'ching_'
'cheveux_'
'cher'
'chemicals_'
'chat_'
'charme_'
'cer_'
'cen'
'cea'
'cc'
'cas'
'capacities_'
'cali'
'bénéficiaire_'
'bruit_'
'bref_'
'br'
'boys_'
'bow'
'bouton_'
'boards_'
'blocks_'
'blessures_'
'biodiversity_'
'bid'
'bibliothèque_'
'basé_'
'band_'
'aéronefs_'
'aériennes_'
'ax'
'awards_'
'avais_'
'auté_'
'autorise_'
'auto_'
'auto'
'aut'
'augment'
'atténuation_'
'attribution_'
'atteints_'
'ata'
'at'
'assemblée_'
'ash'
'arrivé_'
'archives_'
'aquaculture_'
'apprécier_'
'appris_'
'apparemment_'
'anywhere_'
'anim'
'ample_'
'amp'
'ambitions_'
'allégations_'
'allowances_'
'ag'
'ae'
'adressées_'
'adjacent_'
'addresses_'
'acquire_'
'accus'
'accumulation_'
'accountable_'
'abandonner_'
'Wo'
'William_'
'Wikitravel_'
'Wei'
'WS'
'WI'
'Var'
'Valley_'
'Town_'
'Together_'
'Thirdly_'
'Technologies_'
'Tch'
'TN'
'Systems_'
'Supp'
'Socialist_'
'Situation_'
'Sco'
'Saturday_'
'Sat'
'Sant'
'Réserve_'
'Revolution_'
'Reduc'
'Rec'
'Real'
'RES'
'Provide_'
'Prize_'
'Polish_'
'Player_'
'Plans_'
'Pir'
'Peut_'
'Pap'
'Palace_'
'PT'
'PM_'
'PAR_'
'PAR'
'Ouganda_'
'Ordre_'
'Not'
'Netanyahu_'
'Namibia_'
'Mur'
'Min'
'Mary_'
'Marine_'
'Malawi_'
'Mai'
'Mac_'
'MP3_'
'Likewise_'
'Lea'
'Latvia_'
'Lastly_'
'Lam'
'Labrador_'
'Kra'
'Ke'
'KI'
'Is'
'Institutions_'
'Inspection_'
'Infrastructure_'
'Informal_'
'Independent_'
'Inc'
'IRSC_'
'Hongrie_'
'Her_'
'Hat'
'HTML_'
'HCR_'
'Gulf_'
'Glo'
'Gaulle_'
'Gate'
'GT'
'Fro'
'Fort'
'Forms_'
'Fle'
'Finnish_'
'FT'
'Estonia_'
'Eli'
'Ele'
'Egypte_'
'ENT'
'EL'
'Déc'
'Dor'
'Den'
'Dec'
'Currency_'
'Crown_'
'Content_'
'Con'
'Colo'
'Cliquez_'
'Climate_'
'Cla'
'Choice_'
'Chirac_'
'Chapitre_'
'Chairperson_'
'Cas'
'CR'
'COP_'
'CONS'
'CNUCED_'
'CHA'
'Bulletin_'
'Brown_'
'Britannique_'
'Br'
'Border_'
'Bern'
'Bas'
'Barcelone_'
'Barcelona_'
'Autorité_'
'Auto'
'Auditors_'
'Atlantique_'
'Ari'
'Appro'
'Ap'
'Anne_'
'Annan_'
'Angela_'
'Ana'
'Ambassador_'
'Alt'
'Ak'
'Accueil_'
'A3'
'='
';&_'
'66'
'42'
'240_'
'201'
'1976_'
'1968_'
'186'
'12'
'114_'
'06'
'.  _'
'%), _'
'! '
' - '
' * _'
' '
'étage_'
'émergence_'
'élève_'
'élevage_'
'éci'
'échelon_'
'ão_'
'zu'
'yt'
'wishing_'
'wireless_'
'weakness_'
'warned_'
'walls_'
'wal'
'vr'
'von_'
'vit'
'viewed_'
'vidéos_'
'victime_'
'vic'
'vesti'
'vera'
'vent'
'variable_'
'vant'
'ution'
'usine_'
'us'
'urne'
'uno'
'universel_'
'unfair_'
'ultimate_'
'ule_'
'télécommunications_'
'ty'
'tum'
'trouvera_'
'triggered_'
'trees_'
'treatments_'
'trea'
'transmit_'
'transform_'
'transatlantic_'
'tram'
'trained_'
'towns_'
'tourists_'
'touristiques_'
'touchées_'
'tori'
'tin'
'thoroughly_'
'ther_'
'tha'
'tenté_'
'tent_'
'tch'
'tanks_'
'tain'
'syn'
'supposed_'
'superb_'
'sun_'
'suffisantes_'
'stro'
'strain_'
'spécialisés_'
'sportives_'
'sponsors_'
'specialists_'
'souvien'
'sour'
'souhait'
'solarium_'
'slowly_'
'slow'
'signification_'
'signals_'
'shot_'
'sheet_'
'serons_'
'sensibilité_'
'sending_'
'semi_'
'sees_'
'seekers_'
'seed_'
'sectoral_'
'sect'
'seal'
'schéma_'
'sauver_'
'sauvegarde_'
'satisf'
'sar'
'sand'
'sake_'
'révèle_'
'réussir_'
'régulière_'
'réform'
'réfléchi'
'réconciliation_'
'réclamations_'
'réalis'
'ru'
'rock_'
'rl'
'rin'
'rigid_'
'rien'
'rian_'
'reçus_'
'retire_'
'retail_'
'restored_'
'restera_'
'rest'
'ress'
'respectifs_'
'resolving_'
'res'
'repeated_'
'renforçant_'
'renewable_'
'rendent_'
'rencontres_'
'rencontrer_'
'rembourser_'
'rema'
'religieuse_'
'reliability_'
'rejeté_'
'rejet_'
'refusé_'
'reform'
'referring_'
'reco'
'receives_'
'rde'
'ratifié_'
'rapprochement_'
'ramp'
'quantity_'
'pér'
'pushed_'
'publiée_'
'pte'
'préoccupé_'
'prém'
'précédents_'
'provoquer_'
'proven_'
'prov'
'prouver_'
'protest_'
'proph'
'preventive_'
'premi'
'poursuivi_'
'potentiels_'
'possèdent_'
'portes_'
'pop_'
'polio_'
'poisson_'
'phenomenon_'
'pesticides_'
'pers'
'perfectly_'
'penalties_'
'pc'
'passion_'
'partial_'
'parrain'
'parcours_'
'parameters_'
'packaging_'
'ouvrage_'
'outbreak_'
'oui'
'organis'
'orateurs_'
'opportun_'
'oo_'
'ological_'
'oh'
'odo'
'obtention_'
'observé_'
'obs'
'oblige_'
'nt'
'nsi'
'noyau_'
'nov'
'not'
'nominal_'
'noc'
'nge_'
'nau'
'nar'
'nage_'
'médical_'
'musulman_'
'munitions_'
'multitude_'
'mour'
'mortalité_'
'monétaires_'
'modéré'
'millénaire_'
'mesurer_'
'maîtrise_'
'massage_'
'massacre_'
'mandates_'
'lus'
'los_'
'logic_'
'logements_'
'ller_'
'lité_'
'limitées_'
'libres_'
'liberty_'
'lect'
'laundering_'
'lai'
'lag'
'laboratoires_'
'ks'
'kon'
'kers_'
'jugé_'
'joining_'
'itu'
'iron_'
'irement_'
'ious_'
'intégrante_'
'intra'
'intervien'
'integrating_'
'inquiétude_'
'inqui'
'injuries_'
'ini_'
'inférieure_'
'indirect_'
'indienne_'
'indicating_'
'inde'
'incitation_'
'inci'
'impunité_'
'imp'
'immigrés_'
'imi'
'ier'
'identique_'
'ics_'
'huitième_'
'hou'
'hostel_'
'hospitality_'
'hme'
'hire_'
'hautement_'
'hard'
'h30_'
'guides_'
'genocide_'
'garçons_'
'gained_'
'fréquemment_'
'frequent_'
'founding_'
'forty_'
'formulée_'
'formats_'
'forestières_'
'foremost_'
'fluctuations_'
'fewer_'
'fantas'
'faillite_'
'expose_'
'explicitement_'
'explicit_'
'exhaustive_'
'excluding_'
'exceptionnelle_'
'ew_'
'ett'
'estimons_'
'espaces_'
'erons_'
'eraient_'
'enseignements_'
'eme'
'eliminating_'
'ej'
'educated_'
'ecu'
'ect'
'détaillée_'
'dépense_'
'dépendent_'
'définis_'
'défi'
'dé_'
'dure_'
'dure'
'dront_'
'drink_'
'dream_'
'dre'
'doubts_'
'doté_'
'dji'
'disposons_'
'discuter_'
'discriminatory_'
'discover_'
'diriger_'
'directrice_'
'différend_'
'dge_'
'detection_'
'detected_'
'detained_'
'destinations_'
'desk_'
'desired_'
'descriptions_'
'depression_'
'deposits_'
'demo'
'declarations_'
'debtor_'
'dal'
'créati'
'criminels_'
'criminals_'
'couvert_'
'courrier_'
'cour'
'coups_'
'cou'
'cote_'
'copie_'
'cooperative_'
'convincing_'
'convictions_'
'continueront_'
'consultative_'
'consultants_'
'console_'
'consistently_'
'connue_'
'cong'
'conform'
'confi'
'concessions_'
'compétente_'
'complaint_'
'compenser_'
'commodity_'
'commandant_'
'collect_'
'coll'
'coin_'
'cohérente_'
'cohérence_'
'coe'
'co'
'closure_'
'closing_'
'clon'
'cle'
'cke'
'chel'
'chaud'
'chas'
'challenging_'
'centers_'
'cell'
'caus'
'cat'
'cara'
'bénéficié_'
'bul'
'bugs_'
'broken_'
'broadcasting_'
'brand_'
'boutique_'
'boot_'
'bonus_'
'bond_'
'bomb'
'blis'
'bin_'
'beaches_'
'batt'
'basi'
'barre_'
'barre'
'baisser_'
'bab'
'avoiding_'
'avancé_'
'autorisés_'
'austérité_'
'augmentant_'
'attending_'
'asse'
'aris'
'appreciated_'
'appeals_'
'appar'
'apo'
'anonym'
'anno'
'anciennes_'
'analyser_'
'allu'
'alle'
'align'
'ajustement_'
'ajout'
'aident_'
'agré'
'agro'
'aggressive_'
'advised_'
'adjusted_'
'ade'
'acute_'
'actives_'
'ace_'
'accused_'
'accusations_'
'accuracy_'
'accueilli_'
'accro'
'Zélande_'
'Zo'
'Yugoslav_'
'Young_'
'Welcome_'
'Vis'
'Verheugen_'
'Vatican_'
'Van_'
'User_'
'Up'
'Unit'
'USD_'
'UNIDO_'
'UNI'
'UND'
'Tunisie_'
'Ts'
'Transfer_'
'Tourism_'
'Tour'
'Tom'
'TER'
'TB_'
'Statut_'
'Stan'
'Spr'
'Spa'
'Sche'
'Sca'
'San'
'Sam'
'SQL_'
'SH'
'Rural_'
'Romney_'
'Ris'
'Rh'
'Response_'
'Rein'
'Refugees_'
'Recommandation_'
'Ram'
'RG'
'Qui'
'Quels_'
'Pré'
'Porta'
'Points_'
'Photocopying_'
'Phase_'
'Personal_'
'Peoples_'
'Pension_'
'Pass'
'Participation_'
'Paragraph_'
'Pack_'
'Overview_'
'Ocean_'
'ORT'
'NP'
'NH'
'Mubarak_'
'Moo'
'Mobili'
'Merc'
'Mental_'
'Memorandum_'
'Mei'
'Mas'
'Mark'
'Mao_'
'Made'
'MPO_'
'MB'
'MAN'
'Lé'
'Luggage_'
'Los_'
'Lor'
'Link'
'Lev'
'LDCs_'
'Ky'
'Kit'
'Key_'
'Ken'
'Kara'
'KA'
'It'
'Indigenous_'
'Imm'
'IMP'
'IF_'
'Hotels_'
'Hostelsclub_'
'Helsinki_'
'Heating_'
'Have_'
'Halifax_'
'HR_'
'HP'
'Gla'
'Gestionnaire_'
'Gas'
'GMOs_'
'GL'
'Fun'
'Finlande_'
'Father_'
'FF'
'Euros'
'Europ'
'England_'
'Elimination_'
'EU'
'EP_'
'Dell_'
'Daw'
'DFO_'
'Cross_'
'Corr'
'Corps_'
'Contract_'
'Consultations_'
'Coalition_'
'Cinquième_'
'Chef_'
'Cambodia_'
'Calderón_'
'Cadre_'
'CU'
'CRI'
'CM_'
'Burkina_'
'Book_'
'Bissau_'
'Barr'
'Back'
'Ass'
'Arthur_'
'Art'
'Arch'
'Address_'
'ASS'
'ARC_'
'AM_'
'AGE'
'AE'
'? '
'92'
'79'
'235_'
'1977_'
'195'
'1945_'
'179'
'122'
'+ _'
''' _'
' [[_'
' : "_'
' )._'
' %, _'
' '
'ür'
'ú'
'évolutions_'
'év'
'étal'
'établissant_'
'équipé_'
'épidémie_'
'épi'
'éo'
'énoncées_'
'éni'
'éma'
'édi'
'éco'
'échange'
'éb'
'éa'
'än'
'ât'
'Équipe_'
'Él'
'®'
'zh'
'zan'
'yp'
'yant'
'yan_'
'worker_'
'wl'
'wisdom_'
'wis'
'wines_'
'wheel'
'weather_'
'weaknesses_'
'wa_'
'voulait_'
'vor'
'volunteers_'
'virtual_'
'vins_'
'villa'
'vil'
'vieillissement_'
'venue_'
'vel'
'vapeur_'
'vani'
'utilisez_'
'uta'
'urre'
'urbaine_'
'upgrade_'
'unsustainable_'
'unsu'
'unlimited_'
'universitaire_'
'ung_'
'unde'
'ultra_'
'ultra'
'uer_'
'ud_'
'uci'
'uc'
'ual_'
'turn'
'tto'
'tter'
'tte'
'tt_'
'trou'
'translate_'
'transitional_'
'tranche_'
'toxiques_'
'toxic_'
'totales_'
'toll_'
'théâtre_'
'thé'
'therapy_'
'theme_'
'thematic_'
'territoriale_'
'tern'
'tera'
'tch_'
'tam'
'tai'
'sûreté_'
'sûre_'
'systématique_'
'syndrome_'
'sustain_'
'surveiller_'
'supérieures_'
'supplément_'
'sugar_'
'successor_'
'subi_'
'stipule_'
'stick_'
'sten'
'stand'
'spécifi'
'spécialisée_'
'spots_'
'spin'
'specify_'
'spatiales_'
'souplesse_'
'soulevé_'
'souhaitons_'
'souffrances_'
'soucie'
'sondage_'
'socially_'
'sion'
'shipping_'
'shed_'
'shame_'
'serv'
'separation_'
'sem'
'sel_'
'secours_'
'sec'
'sce'
'scar'
'saoudite_'
'salu'
'sail'
'révisée_'
'réuni_'
'rét'
'répondent_'
'répondants_'
'régissant_'
'réelles_'
'réalisée_'
'run'
'rti'
'royal_'
'ronde_'
'rk'
'rim'
'richesses_'
'revi'
'revers'
'reveal_'
'retiré'
'retards_'
'restrict_'
'reserved_'
'resc'
'requise_'
'représentés_'
'rentabilité_'
'renouvellement_'
'rendue_'
'remuneration_'
'remedy_'
'remedies_'
'relèvent_'
'relaxing_'
'refusal_'
'reflecting_'
'recover_'
'reconnaissent_'
'recognise_'
'reassur'
'rear'
'realities_'
'ration'
'rarement_'
'rarely_'
'raisonnables_'
'rad'
'rab'
'quiconque_'
'quest_'
'quart_'
'pétrolières_'
'publiées_'
'publier_'
'publi'
'prévalence_'
'préférences_'
'prédi'
'précédentes_'
'préc'
'protégées_'
'prosecution_'
'propagation_'
'prononcer_'
'prominent_'
'procure'
'prisons_'
'prevailing_'
'presenting_'
'precedence_'
'posent_'
'porté_'
'planifi'
'plages_'
'placés_'
'pl'
'pipeline_'
'pillar_'
'personnellement_'
'personally_'
'persist'
'perce'
'pension'
'peer_'
'pass'
'partagent_'
'oya'
'ov'
'outreach_'
'outer_'
'orthodox'
'orienter_'
'opposer_'
'operated_'
'onc'
'omm'
'om'
'officieuses_'
'officiers_'
'occupent_'
'occup'
'obligatoires_'
'née_'
'num'
'nul_'
'nowadays_'
'noir_'
'nne'
'nk'
'nie'
'ngs_'
'nge'
'net'
'nding_'
'nch'
'nce'
'nazi'
'nationalist_'
'naire_'
'municipalities_'
'ms'
'mpo'
'motivation_'
'modernization_'
'mn'
'mmer'
'mixed_'
'ministériel_'
'mining_'
'mina'
'migrations_'
'methodology_'
'meter_'
'mes'
'merci_'
'medicines_'
'mechanical_'
'meals_'
'mea'
'maybe_'
'mauvaises_'
'mart'
'marines_'
'manières_'
'mandats_'
'man'
'magnificent_'
'love'
'logi'
'locations_'
'loc'
'loan_'
'lite'
'linking_'
'linguistique_'
'liked_'
'lig'
'libérer_'
'librement_'
'libellé_'
'liable_'
'liabilities_'
'len'
'legacy_'
'lee'
'lance_'
'lait_'
'kw'
'kill_'
'jor'
'jeter_'
'israéliennes_'
'inégalité_'
'iné'
'invité_'
'invisible_'
'interview_'
'intern'
'intensifier_'
'instauration_'
'instar_'
'inquiry_'
'innocent_'
'infected_'
'individuel_'
'indirectly_'
'incorporation_'
'incomp'
'incomes_'
'inclut_'
'inciter_'
'ina_'
'impunity_'
'imbalances_'
'ima'
'illicite_'
'ij'
'ifs_'
'ieu'
'ias'
'hydrog'
'hr_'
'house'
'hospitali'
'hop'
'het_'
'hemi'
'hectares_'
'harassment_'
'hal'
'habituellement_'
'géré_'
'géographiques_'
'génétiques_'
'génocide_'
'génie_'
'gran'
'gou'
'glu'
'globe_'
'glass_'
'gers_'
'gagné_'
'fête_'
'fér'
'félicitons_'
'fulfilled_'
'frustration_'
'frein_'
'fournies_'
'fought_'
'formuler_'
'forming_'
'fondations_'
'financées_'
'fier'
'fid'
'fi_'
'fest'
'farms_'
'factur'
'fabricant_'
'fa_'
'extraction_'
'exprime_'
'exported_'
'expiration_'
'experimental_'
'exister_'
'exemplaires_'
'execution_'
'exceeding_'
'exact_'
'ew'
'evaluations_'
'euses_'
'esta'
'esses_'
'esse'
'ero_'
'entraîne_'
'entertainment_'
'ensures_'
'enshrined_'
'enne_'
'engagée_'
'engaging_'
'engage'
'enchant'
'enb'
'ena_'
'emba'
'ell'
'elegant_'
'edition_'
'eating_'
'ean_'
'ean'
'développées_'
'déterminant_'
'dépôts_'
'dép'
'démi'
'délivrance_'
'dus_'
'dues_'
'dry_'
'drew_'
'drafting_'
'dot'
'dominance_'
'dom'
'disp'
'directors_'
'devrons_'
'deter'
'deposit_'
'deposit'
'delivering_'
'decreased_'
'declare_'
'db'
'dangereuses_'
'damages_'
'dai'
'cte'
'craintes_'
'cr'
'cow'
'cove'
'courants_'
'correspondent_'
'contradict'
'contamination_'
'consult_'
'constitutionnel_'
'consiste'
'conservé'
'consacrer_'
'conque'
'conjoint_'
'confront'
'confortablement_'
'conformer_'
'concludes_'
'conce'
'composée_'
'composed_'
'complémentaire_'
'complexity_'
'completing_'
'complementary_'
'complain'
'compl'
'communiqué_'
'commandement_'
'come'
'combustibles_'
'combattants_'
'colonial_'
'collaborer_'
'coi'
'cod'
'cliniques_'
'cker_'
'cited_'
'cit'
'cigarettes_'
'cibles_'
'cherchent_'
'channel_'
'cf_'
'certificats_'
'cement_'
'cati'
'catholique_'
'cate'
'care'
'calculation_'
'bureaucratic_'
'bull'
'bs_'
'bru'
'briefly_'
'boutiques_'
'bourses_'
'boli'
'blow'
'bless'
'bes'
'beneficiaries_'
'ben'
'begins_'
'beau_'
'bath'
'balances_'
'bagagerie_'
'badly_'
'back'
'aï'
'ay'
'aw'
'avère_'
'avancement_'
'autoriser_'
'auberges_'
'attempting_'
'attempted_'
'attache'
'ast_'
'assure'
'assurant_'
'associées_'
'assi'
'asp'
'arti'
'aro'
'arme_'
'architectural_'
'arbres_'
'aqua'
'appuy'
'approuver_'
'appropriately_'
'apportent_'
'appellant_'
'apartments_'
'ange'
'amé'
'amm'
'alcool_'
'agisse_'
'aging_'
'agi'
'afficher_'
'affectées_'
'af'
'adéquate_'
'advocates_'
'advances_'
'admit_'
'adj'
'adequately_'
'adapt'
'activists_'
'actionnaires_'
'accréditation_'
'accomplish_'
'absolue_'
']]'
'XXX'
'XP_'
'Wiki'
'Ville_'
'View_'
'View'
'VER'
'Understanding_'
'Uganda_'
'UPS_'
'UNITAR_'
'UNC'
'UD'
'UC'
'Tun'
'Tuesday_'
'Transportation_'
'Torture_'
'Tim'
'Tar'
'TY_'
'TV'
'TRA'
'TC'
'Sydney_'
'Supplément_'
'Strategic_'
'Stephen_'
'Statute_'
'Statements_'
'Standards_'
'Sport_'
'Speed_'
'Sor'
'Son'
'Somalie_'
'Somalia_'
'Soci'
'Slovénie_'
'Six_'
'Singapour_'
'Sea'
'Scr'
'Schröder_'
'SUR_'
'STA'
'Réseau_'
'Récemment_'
'Ross'
'Ros'
'Ret'
'Release_'
'Reco'
'RAI'
'Quoi_'
'Qu'
'Près_'
'Prot'
'Progress_'
'Prof'
'Physic'
'Performance_'
'Pas'
'Participants_'
'Panama_'
'Pala'
'PP_'
'PNUE_'
'PLA'
'Offences_'
'Oc'
'OM'
'OLAF_'
'OB'
'Nu'
'Norvège_'
'Nik'
'Nepal_'
'Nature_'
'Méditerranée_'
'Much_'
'Morsi_'
'Men'
'Medicine_'
'Mea'
'Marin'
'Marie_'
'Mag'
'MT'
'MD_'
'MDGs_'
'Liste_'
'Limit'
'Liechtenstein_'
'Liberia_'
'Leg'
'Learning_'
'Law'
'Lat'
'Ladies_'
'LU'
'LS'
'LCD_'
'Kon'
'Kn'
'Kam'
'KL'
'Jun'
'Jou'
'Java_'
'Jamaica_'
'JA'
'Istanbul_'
'Israéliens_'
'Islamist_'
'Industries_'
'Ill'
'IL_'
'History_'
'Histoire_'
'Haiti_'
'Hab'
'HS'
'HR'
'HD'
'HC'
'Gé'
'Gri'
'Golden_'
'Gar'
'Francophone_'
'Former_'
'Format_'
'Florence_'
'Five_'
'Fit'
'Faso_'
'FP'
'Ev'
'Engineering_'
'End_'
'EL_'
'ECO'
'Don_'
'Documentation_'
'Dep'
'Demande_'
'Dea'
'Danish_'
'Cy'
'Customer_'
'Credit_'
'Core_'
'Contra'
'Consequently_'
'Coast_'
'Clos'
'Cli'
'Cau'
'Cat'
'Castro_'
'Californie_'
'CG'
'CEP'
'CAP_'
'CAL'
'Bot'
'Bolkestein_'
'Beh'
'Beaucoup_'
'Bangkok_'
'Bac'
'BL'
'Australian_'
'Aur'
'Applications_'
'Apple_'
'Ant'
'Alle'
'Airlines_'
'Airbus_'
'Aid_'
'Age_'
'Activities_'
'Aba'
'Ab'
'ACT_'
'83'
'750_'
'73'
'204_'
'1st_'
'1972_'
'1949_'
'187'
'132'
'130'
'107_'
'101_'
'0s_'
'07'
'...'
'*'
' : «'
''
'œ'
'č'
'ć_'
'ût'
'î'
'éventuelle_'
'évalués_'
'évacuation_'
'étique_'
'éti'
'éro'
'éné'
'émergentes_'
'émanant_'
'élé'
'électrique_'
'égo'
'égale_'
'égal_'
'édit'
'écosystèmes_'
'écologique_'
'éch'
'écarts_'
'èques_'
'Ê'
'´ _'
'zy_'
'zy'
'yu'
'yla'
'wife_'
'whilst_'
'whatsoever_'
'wer_'
'well'
'véritables_'
'vé_'
'vre_'
'voilà_'
'voices_'
'visibles_'
'verte_'
'vendeur_'
'ven_'
'variété_'
'validity_'
'vague_'
'uste'
'urbains_'
'upt'
'updates_'
'unstable_'
'unilatérale'
'unfa'
'unes_'
'unemployed_'
'unanimously_'
'ule'
'uf'
'typ'
'tted_'
'trips_'
'tril'
'trices_'
'tres_'
'transporteurs_'
'transp'
'transformer_'
'touristique_'
'tolera'
'tire'
'tiny_'
'time'
'tid'
'tia'
'thousand_'
'thereof_'
'termine'
'tendency_'
'temporarily_'
'temporaires_'
'tech_'
'tec'
'teacher_'
'tast'
'tariff_'
'targeting_'
'tar_'
'tant'
'tana'
'tall'
'sûrs_'
'sèche_'
'symptoms_'
'switch_'
'surveys_'
'sure'
'suppl'
'suiv'
'suddenly_'
'substitution_'
'subsidy_'
'submissions_'
'stored_'
'stayed_'
'statute_'
'spécialisées_'
'souten'
'soi'
'socio'
'soci'
'sn'
'smart_'
'sleep_'
'sk_'
'sing'
'simul'
'sights_'
'sic'
'shel'
'seuil_'
'settlements_'
'serveurs_'
'semblait_'
'semblable_'
'securities_'
'secondly_'
'scene_'
'scandal'
'sb'
'sauvetage_'
'sat_'
'saluer_'
'sag'
'sad'
'sacrifi'
'sacr'
'références_'
'réformer_'
'récupérer_'
'réalités_'
'réalisa'
'réagi'
'rÃ_'
'rurale_'
'round'
'rouge_'
'rot'
'rooted_'
'roof'
'risky_'
'rip'
'rig'
'rica'
'ria'
'retourne'
'retombées_'
'retailers_'
'restauration_'
'ressenti'
'responding_'
'respectent_'
'respectant_'
'reside'
'renforce_'
'rencontré_'
'remov'
'reliance_'
'rela'
'regulate_'
'regrette_'
'reflètent_'
'reduces_'
'redi'
'rede'
'recouvrement_'
'recom'
'reas'
'realization_'
'readiness_'
'rci'
'rationnelle_'
'rated_'
'rapportant_'
'rappelé_'
'raf'
'rac'
'rable_'
'question'
'péri'
'purement_'
'publiquement_'
'préférence_'
'préa'
'provinciaux_'
'protéines_'
'proposons_'
'prolongée_'
'projected_'
'prohibition_'
'professeur_'
'procurer_'
'proclaim'
'proceeding_'
'problématique_'
'prié_'
'prendra_'
'premièrement_'
'prejudice_'
'predict_'
'ppe'
'pot'
'posée_'
'possess_'
'portugais_'
'populaires_'
'polonais_'
'polluants_'
'politiquement_'
'policiers_'
'point'
'poche'
'pla'
'pioneer'
'pig'
'pieds_'
'picturesque_'
'pharmaco'
'pert'
'paysage_'
'patents_'
'partisan_'
'paroles_'
'parfaite_'
'parcs_'
'paraît_'
'papers_'
'pack_'
'oy'
'ouvertes_'
'ourg_'
'oul'
'orphelins_'
'orders_'
'orc'
'opérationnels_'
'optimal_'
'opposé_'
'ope'
'oon_'
'onné_'
'oms_'
'olog'
'ola'
'oiseaux_'
'od'
'occurs_'
'numéros_'
'nulle_'
'nou'
'notable_'
'nonetheless_'
'newspaper_'
'neighbours_'
'ndre_'
'nda_'
'nb'
'navette_'
'nationali'
'nal_'
'nac'
'mélange_'
'mènent_'
'myst'
'mutuelle_'
'musical_'
'murder_'
'multinationales_'
'movie_'
'mont_'
'mon'
'modules_'
'minimize_'
'mini'
'milk_'
'midi_'
'mic'
'merc'
'menus_'
'mentionnées_'
'mentionner_'
'mel'
'maternelle_'
'match'
'mas_'
'marqu'
'manufacturer_'
'manual_'
'manipul'
'malaise_'
'majeures_'
'magic_'
'magi'
'machinery_'
'législative_'
'législations_'
'lée_'
'lovely_'
'lor'
'locked_'
'loading_'
'lk'
'liques_'
'lier_'
'liberalization_'
'lia'
'lent_'
'lendemain_'
'len_'
'lei'
'leg'
'lecteurs_'
'law'
'lade'
'kitchen_'
'keyword_'
'ken_'
'kat'
'jui'
'jett'
'ivo'
'iva'
'ito_'
'ita'
'isa'
'irre'
'ira'
'iqu'
'ip'
'inverse_'
'inventory_'
'intran'
'intolerance_'
'interven'
'interior_'
'interactions_'
'intellectuel'
'insulaires_'
'insuffisant_'
'installé_'
'inspiration_'
'inscrits_'
'injection_'
'init'
'influenza_'
'industrielles_'
'industrialized_'
'imposée_'
'immédiate_'
'immobiliers_'
'illé'
'illustre'
'ieux_'
'idrc_'
'ides_'
'icul'
'hôtes_'
'hér'
'hè'
'hy_'
'hunt'
'hum'
'hp'
'hot'
'hn'
'hit'
'hir'
'hidden_'
'hence_'
'hei'
'heating_'
'hang'
'handle_'
'gérés_'
'guéri'
'guiding_'
'gui'
'gs'
'grew_'
'gren'
'greatly_'
'gravité_'
'grandement_'
'goût_'
'gouvernemental_'
'gor'
'globally_'
'globali'
'gis'
'girl_'
'gie'
'gge'
'gent'
'generous_'
'gel'
'fédérales_'
'fusion_'
'ful'
'fréquente'
'franchi'
'fr'
'formulated_'
'forment_'
'fondés_'
'fonctionnent_'
'flood'
'fixation_'
'fix'
'fires_'
'filter_'
'fen'
'females_'
'feeding_'
'favorite_'
'fau'
'faction_'
'ez'
'extraordinary_'
'explains_'
'exigeant'
'exhibit'
'exerce_'
'excursions_'
'exclu'
'exce'
'examinées_'
'examinée_'
'evaluating_'
'eti'
'ete'
'estr'
'esti'
'espion'
'eries_'
'erg_'
'eradication_'
'equitable_'
'equi'
'environnemental_'
'envie_'
'entrepren'
'entend'
'entail_'
'enrichment_'
'enra'
'enlarged_'
'englobe_'
'enforce_'
'elderly_'
'ege'
'ede'
'dépression_'
'déposée_'
'déf'
'décret_'
'découvert_'
'décisionnel_'
'débo'
'débit_'
'dÃ_'
'dur_'
'dur'
'dual_'
'dropped_'
'draw'
'drag'
'doute'
'doubl'
'documented_'
'divide_'
'divergences_'
'distingue_'
'diss'
'dispens'
'disparu_'
'dismissed_'
'discut'
'disappeared_'
'director_'
'dirai'
'diplomatiques_'
'digne_'
'devi'
'desperate_'
'deserve_'
'describes_'
'descend'
'deprived_'
'departmental_'
'denrées_'
'denial_'
'demandant_'
'dema'
'dele'
'deeper_'
'dam_'
'cz'
'cult'
'cula'
'cul'
'crédible_'
'crops_'
'crit'
'creditors_'
'couvre_'
'coupable_'
'count_'
'correspond'
'corr'
'conviendrait_'
'convened_'
'conti'
'contenir_'
'consume'
'construi'
'constituée_'
'conservative_'
'cons'
'connecting_'
'congé_'
'congrès_'
'concluding_'
'concerted_'
'concernée_'
'comptable_'
'compren'
'compose_'
'comport'
'comp'
'communiqués_'
'commander_'
'combustion_'
'collaborative_'
'coh'
'coefficient_'
'clarity_'
'cien'
'chronique_'
'chocolat_'
'chlor'
'cherche'
'chen'
'characters_'
'chaos_'
'champs_'
'chal'
'certified_'
'ceremony_'
'cente'
'carries_'
'capability_'
'cac'
'button_'
'bulk_'
'brut_'
'broke_'
'britanniques_'
'borrowing_'
'bold_'
'boi'
'blessé'
'birds_'
'biotechnologie_'
'billets_'
'bienfaisance_'
'benefited_'
'belge_'
'battery_'
'bat'
'bass'
'base'
'bas'
'barrières_'
'bandes_'
'band'
'ballot_'
'balcony_'
'baie_'
'aéroports_'
'avocat_'
'aval'
'automatique_'
'autodétermination_'
'attractive_'
'attentivement_'
'atteintes_'
'asso'
'ass_'
'artistic_'
'artistes_'
'arrêté_'
'are'
'arbitra'
'aquatic_'
'appelons_'
'appartement_'
'antérieures_'
'amples_'
'amor'
'ami_'
'amenities_'
'amba'
'alter_'
'allocations_'
'allemandes_'
'allait_'
'alist'
'alis'
'albeit_'
'airs'
'ah'
'aggression_'
'age'
'afternoon_'
'affaibli'
'advocate_'
'administrer_'
'administrateurs_'
'adjust_'
'acted_'
'aci'
'accusés_'
'accusation_'
'acco'
'absten'
'absorbe'
'Zh'
'Zealand_'
'Would_'
'Wilson_'
'WIN'
'Vu_'
'Violence_'
'Vie'
'Vic'
'Ven'
'VII_'
'VE'
'Up_'
'Unless_'
'UP'
'Trent'
'Tou'
'Tip_'
'Tampere_'
'TS'
'TPSGC_'
'TL'
'TC_'
'Subject_'
'Stat'
'Spring_'
'Spending_'
'Sol'
'Ski'
'Ship'
'Sec'
'Sahara_'
'Sad'
'STO'
'SR'
'SN'
'SIDA_'
'SG'
'Rép'
'Roth'
'Roc'
'Return_'
'Resp'
'Regi'
'Reference_'
'Ref'
'Recommendations_'
'Recommendation_'
'Real_'
'Reagan_'
'Rat'
'Raf'
'Rac'
'RA_'
'Qaeda_'
'Proliferation_'
'Produits_'
'Prev'
'Presidents_'
'Pou'
'Postes_'
'Post_'
'Pos'
'Por'
'Pop'
'Politique_'
'Pl'
'Objectifs_'
'News'
'Moscow_'
'Monte'
'Model_'
'Mode'
'Mise_'
'Milosevic_'
'Mill'
'Met'
'Medi'
'May'
'Mass'
'Marshall_'
'Man_'
'Malte_'
'Malaisie_'
'Making_'
'Maastricht_'
'MEPs_'
'MA_'
'Loc'
'Livre_'
'Leader_'
'Laundry_'
'Lakes_'
'LT'
'LS_'
'LLE'
'Korean_'
'Kofi_'
'Kan'
'Juli'
'Jane'
'Jac'
'Inuit_'
'Integration_'
'Inn'
'Info'
'Inf'
'IST'
'ISS'
'ISP'
'INS'
'IM_'
'Hu_'
'Hospital_'
'Horaires_'
'Heureusement_'
'Haïti_'
'Hall'
'Hal'
'Hai'
'Gue'
'Grant'
'Governor_'
'Gordon_'
'Germans_'
'Gazette_'
'Game_'
'GUE_'
'GC_'
'Fuji'
'Free'
'Français_'
'Fla'
'Fifty_'
'Fat'
'Far'
'Fan'
'FO'
'Export_'
'Export'
'Eva'
'Europol_'
'Esp'
'End'
'Enc'
'Employe'
'Emp'
'Elevator_'
'Eglise_'
'Educational_'
'Ecuador_'
'Economics_'
'ENTS_'
'Décide_'
'DÉ'
'Down'
'Disp'
'Disabled_'
'Develop'
'Det'
'Darfour_'
'DRAS_'
'DG_'
'Cup_'
'Cuban_'
'Cro'
'Coordinator_'
'Conventions_'
'Contents_'
'Conte'
'Consideration_'
'Conservation_'
'Confi'
'Complete_'
'Commissioners_'
'Coa'
'Classification_'
'Certificat'
'Cari'
'Cape_'
'Capacity_'
'Cam'
'California_'
'CRP_'
'COR'
'COMP'
'COMM'
'CK'
'CIT'
'CIP'
'CES'
'CC_'
'CAN'
'Bud'
'Brig'
'Brie'
'Boo'
'Berg'
'BC'
'Autochtones_'
'Aut'
'Austrian_'
'Au'
'Asse'
'Army_'
'Alg'
'Ad_'
'Activités_'
'AT_'
'AO'
'ALE'
':] _'
': $_'
'211_'
'210_'
'1975_'
'19'
'106_'
'/ '
'* '
') :_'
'$'
' <_'
'€™_'
'€_'
'…_'
'” – _'
'š'
'ë_'
'évoqué_'
'évite'
'évidente_'
'étr'
'éto'
'étend'
'épo'
'énoncé_'
'émis'
'élan_'
'éla'
'éclairage_'
'échecs_'
'ètent_'
'ète_'
'Ét'
'ÉC'
'zen_'
'yst'
'ysi'
'ycl'
'ws'
'worried_'
'wonder_'
'wildlife_'
'wei'
'weekend_'
'web'
'wear_'
'watching_'
'wasn_'
'végéta'
'vraie_'
'voyons_'
'vol'
'visibility_'
'violated_'
'vier'
'verra_'
'vern'
'verd'
'venture_'
'ven'
'veille_'
'veille'
'varient_'
'variations_'
'varia'
'van'
'valu'
'vall'
'vagues_'
'utility_'
'uti'
'usr_'
'usa'
'upcoming_'
'unwi'
'uncertain_'
'una_'
'ulo'
'ull'
'uelle_'
'ude_'
'uan'
'tut'
'tude_'
'troop_'
'trie'
'tre'
'transnational_'
'traitées_'
'traces_'
'trac'
'touchent_'
'ton'
'tombé'
'tics_'
'throw'
'thro'
'threshold_'
'tho'
'text'
'terminate_'
'tentent_'
'tendent_'
'températures_'
'temperatures_'
'tel'
'taxpayers_'
'tat'
'taste_'
'tan_'
'tac'
'sérieuses_'
'symbols_'
'symbole_'
'sy_'
'swa'
'suspicious_'
'surrounded_'
'surge_'
'supplier_'
'supplementary_'
'superbe_'
'suivie_'
'suggère_'
'subparagraph_'
'strip'
'strictly_'
'straight_'
'stor'
'stock'
'steel_'
'steady_'
'stan'
'stabilis'
'ssent_'
'squa'
'spirituel'
'spectacular_'
'spare_'
'spa'
'souscrit_'
'sound'
'some'
'som'
'solving_'
'sma'
'sk'
'sition_'
'sit_'
'sin_'
'silver_'
'signifi'
'signer_'
'signaux_'
'sie_'
'side'
'shortcomings_'
'sharply_'
'shareholders_'
'sha'
'settled_'
'servants_'
'senti'
'sensor'
'seize_'
'schi'
'satisfaisant'
'samples_'
'salue_'
'sala'
'sain'
'safeguards_'
'rôles_'
'révolutionnaire_'
'réviser_'
'résidant_'
'rés'
'répét'
'régi'
'référendum_'
'réclamation_'
'réciproque'
'réalisées_'
'réa'
'rum'
'rulers_'
'ruled_'
'rted_'
'routine_'
'ron_'
'romantic_'
'rog'
'rne'
'rmin'
'rit'
'rique_'
'rion'
'ring'
'ride_'
'revo'
'reve'
'retrouvent_'
'retenues_'
'resumed_'
'respectés_'
'respect'
'représenté_'
'repro'
'repos_'
'renforcée_'
'relie'
'relevé_'
'rejette_'
'reintegration_'
'rehabilitation_'
'regulators_'
'refo'
'reflection_'
'redé'
'recou'
'recognizing_'
'reactions_'
'rapprocher_'
'rain_'
'radicale'
'quitte'
'qualités_'
'périodique_'
'pé_'
'pur_'
'psychologique_'
'préventive_'
'présidente_'
'préparés_'
'préparé_'
'proximity_'
'provinciale_'
'protest'
'protect'
'propriétés_'
'progressé_'
'profondeur_'
'profond_'
'productions_'
'produces_'
'prochains_'
'proactive_'
'privileged_'
'prio'
'prim'
'priest'
'preserving_'
'ppo'
'ppi'
'pouss'
'potentiellement_'
'poses_'
'portfolio_'
'poll_'
'pola'
'plu'
'plenty_'
'placée_'
'place'
'physi'
'philosophie_'
'pes'
'pertinente_'
'pertinent_'
'pertinence_'
'perpetrators_'
'perm'
'payant'
'pattern_'
'patrioti'
'passés_'
'passive_'
'passion'
'passes_'
'parvien'
'partagée_'
'parallèle_'
'pan_'
'painful_'
'pack'
'oï'
'owe'
'overs'
'overr'
'outdoor_'
'ours_'
'ound'
'oris'
'opt_'
'oph'
'operative_'
'operates_'
'onna'
'omp'
'ombre_'
'oll'
'ois_'
'oid'
'ographi'
'og_'
'officially_'
'offerte_'
'offensive_'
'océans_'
'oco'
'oce'
'occupational_'
'obst'
'obscur'
'nz'
'nun'
'noto'
'normalisation_'
'normale_'
'nor'
'nom'
'nobody_'
'nique'
'nin'
'newsletter_'
'neuro'
'nent'
'nels_'
'nav'
'nationalité_'
'méditerranéenne_'
'médecin_'
'my'
'mut'
'museums_'
'municipalités_'
'multip'
'mpe'
'moreover_'
'mora'
'monopoly_'
'monitored_'
'modify_'
'mixte_'
'mix'
'mistakes_'
'mine'
'mers_'
'mentaux_'
'measuring_'
'mber'
'mb'
'mation_'
'massif_'
'marking_'
'maritimes_'
'marin_'
'marginalis'
'mar_'
'manifesté_'
'manifestement_'
'manifeste_'
'mana'
'mali'
'maintenu_'
'main'
'magn'
'magazine_'
'macro_'
'lun'
'lum'
'lst'
'lop'
'longueur_'
'logo_'
'log_'
'local'
'lling_'
'llement_'
'lis'
'line'
'like'
'libéré'
'libéraux_'
'lers_'
'latitude_'
'lar_'
'laissez_'
'laissent_'
'kh'
'keys_'
'keen_'
'jury_'
'ième_'
'iy'
'iss'
'ised_'
'ionn'
'invites_'
'invalid'
'inutiles_'
'intérimaire_'
'intérim_'
'intro'
'interviews_'
'interromp'
'interpret'
'intensity_'
'intensification_'
'intends_'
'insécurité_'
'insur'
'insult'
'insuffisante_'
'insuffisance_'
'insu'
'institutionnel_'
'institut'
'installés_'
'insisté_'
'inhal'
'inhabit'
'infra'
'infant_'
'indépendamment_'
'indemnités_'
'incont'
'inco'
'incarn'
'inability_'
'impré'
'imposing_'
'import'
'imperative_'
'impartial_'
'illusion_'
'illicites_'
'illi'
'ih'
'ignor'
'ifie'
'identifi'
'ices_'
'iba'
'iat'
'hôpitaux_'
'hérit'
'hypothèse_'
'human'
'horaires_'
'honnête'
'hia'
'height_'
'heat_'
'harmonisé'
'hange'
'habitude_'
'générer_'
'gun_'
'gua'
'gratuit'
'grass_'
'graphi'
'grad'
'gouverne'
'goo'
'gol'
'gni'
'gest'
'genres_'
'genes_'
'gen_'
'gaining_'
'fun'
'fui'
'fraction_'
'fossiles_'
'forêt_'
'flow'
'floors_'
'ffi'
'ferait_'
'feedback_'
'favorisant_'
'fatigue_'
'fardeau_'
'fallu_'
'fallait_'
'facult'
'extremism_'
'externes_'
'externe_'
'exprimées_'
'explicite_'
'exe_'
'exclusi'
'exclure_'
'exceptionnels_'
'exc'
'essaie'
'espér'
'erne'
'epi'
'envisage'
'ensured_'
'enrichi'
'ennemi_'
'enforced_'
'endeavour_'
'ende'
'encourage'
'emic'
'electric_'
'eir'
'eig'
'effectifs_'
'effectif_'
'edited_'
'edi'
'economist_'
'earn_'
'développé_'
'détriment_'
'désin'
'désignés_'
'dépos'
'déployer_'
'déplacements_'
'dépl'
'démocrate_'
'délits_'
'défenseurs_'
'décr'
'découlent_'
'débuté_'
'dwell'
'dreams_'
'drain'
'douleur_'
'doses_'
'dommage_'
'doctor_'
'divine_'
'diversification_'
'disturbing_'
'distribué_'
'distribute_'
'distribuer_'
'distinguer_'
'distinctive_'
'dishes_'
'disent_'
'discovery_'
'disciplinary_'
'dirige_'
'dirig'
'diplomatie_'
'dining_'
'diffusé_'
'differ_'
'diagnosis_'
'deviennent_'
'developers_'
'detect_'
'dess'
'dependence_'
'deny_'
'dent_'
'demonstrations_'
'demographic_'
'delighted_'
'delete_'
'degradation_'
'definitely_'
'declined_'
'deadline_'
'cure_'
'cur'
'ctor'
'ctions_'
'créent_'
'crois'
'correspondants_'
'corrected_'
'coordonnée_'
'convi'
'convey'
'conven'
'contrôlée_'
'contraception_'
'continuation_'
'continu'
'contextual_'
'contemporain_'
'containment_'
'conta'
'consulté_'
'consulted_'
'consula'
'constructif_'
'constitutionnelle_'
'conserve_'
'confidentiel'
'confidentiality_'
'conditioning_'
'compétentes_'
'composantes_'
'complainant_'
'compile'
'comparer_'
'comparative_'
'compara'
'commises_'
'comfortably_'
'coloni'
'coherence_'
'cluster_'
'cler'
'classiques_'
'classement_'
'cités_'
'cites_'
'cili'
'chin'
'chet'
'chemins_'
'check'
'charity_'
'charit'
'chargées_'
'charge'
'chant_'
'chaleur_'
'chairs_'
'certificates_'
'cercle_'
'cepti'
'cellule_'
'caution_'
'careful_'
'capitals_'
'cano'
'canada_'
'calm_'
'but'
'breach_'
'bre_'
'brain_'
'bourse_'
'boundaries_'
'boucl'
'bord'
'blé_'
'blood'
'blend'
'bel_'
'battre_'
'banquiers_'
'balcon_'
'bail_'
'backed_'
'axés_'
'avoided_'
'autrefois_'
'autorisées_'
'autonome_'
'augmentent_'
'attachement_'
'atri'
'ator_'
'atis'
'assembly_'
'assainissement_'
'aside_'
'asa'
'arrive'
'arranged_'
'arin'
'argues_'
'archive_'
'arc'
'apt'
'apportés_'
'applicants_'
'appellent_'
'antérieure_'
'anticipated_'
'annulé_'
'annuler_'
'animation_'
'améliorée_'
'amn'
'altogether_'
'altitude_'
'alongside_'
'ality_'
'alism_'
'ala_'
'ak'
'aj'
'ail'
'agrees_'
'affordable_'
'affirmation_'
'affiche'
'affectés_'
'affecté_'
'affecter_'
'ado'
'admitted_'
'adapté_'
'ada_'
'ada'
'acti'
'achèvement_'
'accé'
'accompli'
'accompagn'
'accommodate_'
'acceptent_'
'absurde_'
'absent_'
'abrog'
'abr'
'aboutir_'
'abortion_'
'abordé_'
'aboli'
'abatt'
'XX_'
'Wr'
'Workshop_'
'Will'
'Welfare_'
'Weapons_'
'Was'
'Wan'
'WW'
'WKH_'
'WD_'
'Voyage'
'Volume_'
'Villa_'
'VE_'
'Us_'
'Under'
'UNRWA_'
'UNFPA_'
'UM'
'Téléphone_'
'Téléc'
'Tru'
'Trop'
'Troisièmement_'
'Trip'
'Treaties_'
'Thu'
'Thanks_'
'Test'
'Terrace_'
'Termin'
'Ter'
'Tak'
'TUR'
'TI_'
'T1'
'Swi'
'Sunni_'
'Subsection_'
'Structural_'
'Str'
'Stone'
'Steering_'
'Start_'
'Standing_'
'Sp'
'Sony_'
'Soi'
'Soc'
'Sl'
'Siège_'
'Sites_'
'Sil'
'Signature_'
'Sharon_'
'Shanghai_'
'Sh'
'Seuls_'
'Set_'
'Seminar_'
'Securities_'
'Scott_'
'Scot'
'Santa_'
'SW'
'STE'
'SI_'
'SIN'
'SCT_'
'Rouge_'
'Rosa'
'Retr'
'Responsible_'
'Resort_'
'Republican_'
'Reporting_'
'Rental_'
'Registry_'
'Registration_'
'Recognizing_'
'Rand'
'RO_'
'Quelques_'
'QUI'
'Publi'
'Pro_'
'Priority_'
'Pri'
'Power'
'Poor_'
'Poly'
'Pol'
'Pic'
'Personne_'
'Pan'
'PI_'
'PIC_'
'Ow'
'Ord'
'Oh'
'OL_'
'OK_'
'Né'
'Noël_'
'Notice_'
'Nokia_'
'Niger_'
'Nicaragua_'
'Newspapers_'
'New'
'Neither_'
'Nav'
'NR'
'NCE_'
'Musharraf_'
'Mot'
'Moscou_'
'Morgan_'
'Montenegro_'
'Mod'
'Mis'
'Mir'
'Ministerial_'
'Michel_'
'Mau'
'Marc_'
'Mara'
'Major_'
'MC_'
'Ly'
'Lud'
'Licence_'
'Lia'
'Lee_'
'Lebanese_'
'Large_'
'LTD_'
'LQ'
'LP'
'LM'
'LG'
'K1A_'
'Justification_'
'Javier_'
'JU'
'JP'
'Iv'
'Issues_'
'Inv'
'Innovation_'
'Industrie_'
'Indiens_'
'Imp'
'IX_'
'IR_'
'IRU_'
'INT'
'ICT_'
'ICC_'
'ICA'
'IA_'
'Hou'
'Hold'
'Hitler_'
'Hear'
'Hea'
'Haye_'
'Hamilton_'
'Général_'
'Grenad'
'Green'
'Greater_'
'Grands_'
'Goods_'
'Golf_'
'Gold'
'Gat'
'GS'
'Fourth_'
'Fou'
'Flash_'
'Finalement_'
'Fau'
'Faites_'
'FIN'
'FDI_'
'Expert_'
'Expe'
'Esc'
'Es_'
'Encourage'
'Employees_'
'Electronic_'
'Edmonton_'
'Economy_'
'Eb'
'EV'
'EST_'
'ESC'
'EMENT_'
'EG'
'Droit_'
'Departmental_'
'Daniel_'
'DAT'
'Cur'
'Cré'
'Cot'
'Cost'
'Consultation_'
'Cons'
'Concernant_'
'Commonwealth_'
'Committees_'
'Commercial_'
'Clo'
'Chancellor_'
'Chacun_'
'Certain_'
'Cent'
'Castle_'
'Carte'
'Cart'
'Card_'
'Cannes_'
'Cameron_'
'CRTC_'
'COM'
'CNRC_'
'CER'
'CAS'
'Budgets_'
'Buc'
'Broad'
'Bridge_'
'Brid'
'Bretton_'
'Brand'
'Brad'
'Bos'
'Bolivia_'
'Boe'
'Bis'
'Birmanie_'
'Big_'
'Between_'
'Ban_'
'Ball'
'Back_'
'BY_'
'BER'
'BB'
'BAS'
'Award_'
'Aviation_'
'Arafat_'
'Applaudissements_'
'Année_'
'Ang'
'Actuellement_'
'Academy_'
'AUX_'
'ALE_'
'AIR_'
'AD_'
'ADR_'
': «_'
'96'
'215'
'1948_'
'175'
'169_'
'154'
'152_'
'137_'
'136'
'134'
'128'
'117_'
'112_'
'002'
'))'
' �_'
' ”'
' : '
' #_'
' "'
' ! _'
''
''
''
'ﬁc'
'€'
'” '
'’, _'
'— _'
'ŕ_'
'ôt'
'ïd'
'éventuelles_'
'éventualité_'
'évalué_'
'étudie'
'étrange_'
'équilibré_'
'émi'
'émettre_'
'élites_'
'élargie_'
'élaborés_'
'éducatif_'
'écos'
'écologiques_'
'éclate'
'éclat'
'écl'
'échoué_'
'çon_'
'Îles_'
'   .'
'   '
' -, _'
'}'
'zoo'
'zon'
'zi_'
'zb'
'yle_'
'yield_'
'yea'
'yc'
'xenophobia_'
'wn_'
'wild_'
'widen'
'wholly_'
'wellness_'
'weigh'
'wea'
'washe'
'warrant_'
'ward'
'wai'
'vulnérabilité_'
'vs_'
'voya'
'voulaient_'
'vois_'
'vocational_'
'viruses_'
'viole'
'viens_'
'vicinity_'
'veu'
'verify_'
'verba'
'ved_'
'varying_'
'varieties_'
'variant'
'valide'
'val'
'vacation_'
'uvr'
'utter'
'utmost_'
'utilisa'
'ute_'
'ussi'
'usly_'
'usement_'
'ury_'
'urges_'
'ups'
'upgrading_'
'unte'
'unt'
'unre'
'unn'
'unm'
'unis'
'unfor'
'unf'
'uncon'
'uma'
'ued_'
'uch'
'ub'
'tw'
'turque_'
'tuo'
'tuberculose_'
'tter_'
'tsunami_'
'tric'
'travelling_'
'transporté'
'translated_'
'transcend'
'tranquille_'
'tranch'
'tran'
'traits_'
'trace_'
'tourné'
'touristes_'
'tour'
'tough_'
'tortured_'
'tombe'
'toi'
'tirées_'
'till'
'tight'
'tied_'
'tie'
'thérapie_'
'thon_'
'thi'
'themes_'
'thal'
'term'
'température_'
'tempt'
'tem'
'tal'
'taires_'
'tail'
'tage_'
'tactique_'
'tactics_'
'tackling_'
'sz'
'synergies_'
'suspendu'
'suspended_'
'suspend_'
'surroundings_'
'surprised_'
'summ'
'subsidiarity_'
'styl'
'structur'
'strikes_'
'strengths_'
'strat'
'stran'
'storm_'
'stepp'
'stem_'
'sted_'
'state'
'starts_'
'stal_'
'stables_'
'ssé'
'spécifiquement_'
'spécialités_'
'split_'
'spill'
'specifications_'
'soyons_'
'souvenir_'
'souris_'
'soup'
'soumission_'
'soulève'
'soul_'
'sorry_'
'sophisticated_'
'sonne'
'song_'
'sold'
'soirée_'
'snow_'
'sièges_'
'sir'
'singer_'
'simultaneously_'
'shuttle_'
'seurs_'
'settings_'
'separately_'
'separated_'
'selective_'
'seized_'
'scrap'
'scenarios_'
'scen'
'scann'
'scandale'
'scan_'
'savoirs_'
'satisfy_'
'satisfaits_'
'satellites_'
'sampling_'
'sad_'
'rêve'
'réunis_'
'rétro'
'résult'
'résolu_'
'réso'
'réservé_'
'républicain'
'référen'
'référ'
'réexamen_'
'réactions_'
'rus'
'rth'
'roman'
'roi_'
'rn_'
'ritu'
'rist'
'reverse_'
'resté'
'ressemble_'
'resse'
'responsive_'
'respects_'
'respecting_'
'respecte_'
'resist_'
'reputation_'
'représentait_'
'reprendre_'
'repren'
'reportedly_'
'renseignement_'
'renowned_'
'renouvelable_'
'renou'
'rele'
'relate_'
'regarder_'
'redistribution_'
'recycling_'
'recul_'
'recourse_'
'reconnue_'
'reconnaiss'
'recherch'
'recalled_'
'realized_'
'realise_'
'read'
'rc'
'ravi'
'randonnée_'
'rag'
'qué'
'quotidien_'
'quan'
'qualifiée_'
'qualifié_'
'qa'
'pêches_'
'pénétr'
'pât'
'put'
'pto'
'psychologi'
'ps'
'présumé'
'présidentielles_'
'préoccupe'
'préf'
'proxy_'
'provoqué_'
'protein'
'promotes_'
'promising_'
'promesses_'
'prome'
'projet'
'progression_'
'progressi'
'programm'
'professions_'
'prof'
'prié'
'privatization_'
'prie_'
'prestataires_'
'presse'
'press'
'pren'
'preferences_'
'precedent_'
'pratiqu'
'potent'
'posséder_'
'posi'
'portions_'
'porno_'
'polit'
'poli'
'poe'
'pleas'
'platforms_'
'plain'
'pist'
'pier'
'pieces_'
'pid'
'phil'
'perçoivent_'
'persiste'
'permitting_'
'permettraient_'
'permanence_'
'pensez_'
'pend'
'pee'
'peau_'
'peak_'
'payé_'
'paye_'
'patri'
'patience_'
'path'
'passées_'
'parviennent_'
'participe_'
'parlent_'
'parité_'
'pair_'
'ozone_'
'ovi'
'overwhelming_'
'ouv'
'outr'
'outputs_'
'ously_'
'orph'
'orit'
'orient'
'ordonnance_'
'ora_'
'opérer_'
'opérationnelles_'
'opérationnelle_'
'optique_'
'opt'
'opr'
'oppression_'
'opera'
'opens_'
'onnelle'
'onn'
'oligarch'
'ole'
'oldest_'
'oka'
'ogy_'
'offset_'
'of'
'oct'
'occupé_'
'obtaining_'
'observateur_'
'néerlandais_'
'nua'
'noti'
'nommer_'
'nois'
'nit'
'nis'
'nien'
'nia'
'ngi'
'ney'
'ners_'
'nelle_'
'neige_'
'nd'
'navigateur_'
'nat'
'nant_'
'nami'
'nage'
'nag'
'méth'
'médi'
'mètre_'
'myth'
'mouth_'
'motiv'
'mortgages_'
'mood_'
'mont'
'monopole_'
'mond_'
'mobilize_'
'mit_'
'mist'
'midst_'
'micros'
'met'
'merits_'
'mentionnés_'
'mentionn'
'mental'
'mediat'
'mec'
'mbo'
'mba'
'maturité_'
'maternal_'
'massive'
'mara'
'mann_'
'managerial_'
'malf'
'majeurs_'
'magasins_'
'légitimes_'
'légaux_'
'légal_'
'loy'
'lounge_'
'lon_'
'liti'
'literature_'
'lise'
'linguistiques_'
'libér'
'liberalis'
'legali'
'leak'
'lb'
'lave_'
'launching_'
'lations_'
'langage_'
'lance'
'lacking_'
'kle'
'kids_'
'key'
'juridiction_'
'judgement_'
'jeudi_'
'jail'
'ix_'
'itte'
'itions_'
'ition'
'ites_'
'isti'
'ist'
'issus_'
'israélien_'
'isonn'
'islands_'
'ish'
'irrigation_'
'iraniens_'
'invitons_'
'invalidité_'
'intègre_'
'introduit_'
'inti'
'interse'
'interpreted_'
'interinstitution'
'intergouvernemental_'
'institutionnelles_'
'instantly_'
'inspired_'
'inspire_'
'inspecteurs_'
'inscrites_'
'ink'
'injuste_'
'inhibit'
'inge'
'informa'
'inform'
'inevitably_'
'iness_'
'iner'
'indé'
'indo'
'individuelle_'
'indispensables_'
'indigènes_'
'indien_'
'indicative_'
'indicateur_'
'index'
'incom'
'inclu'
'incitations_'
'incapable_'
'impressionnant'
'imposées_'
'imposé_'
'imposent_'
'impliquent_'
'implication_'
'immunité_'
'immunity_'
'imagination_'
'ilit'
'ila'
'igna'
'ification_'
'ieuses_'
'ide'
'iant_'
'hém'
'hyper_'
'hro'
'hostile_'
'hosted_'
'horizontal_'
'honest_'
'homel'
'hom'
'hma'
'hly_'
'hic'
'heurte'
'health'
'hazardous_'
'habitant_'
'généré'
'généra'
'gène_'
'guin'
'gru'
'graphic_'
'gr'
'gos'
'gma'
'glace'
'ght'
'gera'
'geno'
'gau'
'garde'
'gall'
'gale'
'functionality_'
'fuels_'
'french_'
'frappé_'
'fournissant_'
'forcé_'
'footing_'
'fond'
'fonctionnalité_'
'fold_'
'focal_'
'fluid_'
'flu'
'flotte_'
'flash_'
'flag'
'fis'
'financés_'
'financ'
'fig'
'fiducie_'
'fia'
'festivals_'
'festival_'
'fermé_'
'fermer_'
'fenêtre_'
'feasible_'
'fe_'
'façons_'
'fast'
'fassent_'
'famine_'
'fad'
'extract_'
'exposées_'
'exporters_'
'explor'
'explication_'
'exig'
'exh'
'exercent_'
'exemptions_'
'executives_'
'excès_'
'exclue'
'examine'
'evil_'
'everybody_'
'este'
'essor_'
'ession'
'essaye'
'ese_'
'erio'
'ept'
'episode_'
'eous_'
'envoi_'
'envisagées_'
'environs_'
'entrées_'
'entrusted_'
'entra'
'entertain'
'ensi'
'enl'
'ening_'
'enemies_'
'ene_'
'endur'
'endettement_'
'encouragement_'
'enci'
'ence'
'emploie_'
'emit'
'emergencies_'
'ement'
'embo'
'elli'
'ellement_'
'eligibility_'
'elect_'
'eit'
'ega'
'eg'
'editor_'
'ech'
'développeurs_'
'détruit_'
'détente_'
'détaillés_'
'déposer_'
'déplacées_'
'dépistage_'
'dépasse'
'démontrer_'
'démarrage_'
'démarches_'
'délibérément_'
'dégradation_'
'définitif_'
'définiss'
'défaite_'
'déce'
'dum'
'dui'
'dozens_'
'dotées_'
'dol'
'dn'
'dle_'
'divisé'
'dits_'
'dist'
'dispers'
'discriminatoire_'
'disappear_'
'dirigé_'
'directory_'
'dip'
'diet_'
'dies_'
'dictature_'
'diar'
'diamond_'
'diam'
'devastating_'
'deu'
'depart'
'delayed_'
'defines_'
'defi'
'deci'
'dam'
'cyber'
'cus_'
'cultivation_'
'cubain'
'cu'
'cts_'
'cto'
'ct'
'créées_'
'cry'
'croient_'
'creditor_'
'crainte_'
'craignent_'
'coupables_'
'council_'
'cost'
'cos'
'corrompu'
'corrections_'
'convert_'
'contributes_'
'contract'
'contra'
'continu_'
'contextuelle_'
'consultant_'
'construit_'
'constructed_'
'consommé'
'consacre_'
'confront_'
'confirm'
'confier_'
'confident_'
'condemn_'
'concerné_'
'concentrate_'
'comput'
'comptent_'
'comptabilité_'
'compounds_'
'composés_'
'comportant_'
'compatibles_'
'communique'
'commercial'
'commentaire_'
'commend_'
'commend'
'combining_'
'colère_'
'column_'
'colo'
'college_'
'coerci'
'cocktail_'
'coc'
'clothing_'
'clock_'
'cliquez_'
'clinique_'
'clicking_'
'classic_'
'clandestine_'
'clairs_'
'civilisations_'
'cid'
'ché_'
'château_'
'cht'
'choisisse'
'chen_'
'charmant'
'challenged_'
'chaleureuse_'
'cesser_'
'cesse_'
'cei'
'cca'
'cat_'
'cardi'
'caractéristique_'
'cap_'
'cancellation_'
'cancel'
'calibre_'
'calculated_'
'caisses_'
'cache_'
'cache'
'cab'
'bâti'
'by'
'burn_'
'burg_'
'bun'
'build'
'bubble_'
'brûl'
'brun'
'brothers_'
'breeding_'
'branche_'
'bomb_'
'bol'
'blind_'
'blind'
'bird_'
'biomé'
'bilatéral_'
'bigger_'
'bien'
'bicycle'
'bi_'
'belong_'
'bed'
'bassin_'
'bankers_'
'bands_'
'bancaires_'
'bak'
'bags_'
'backs_'
'aéro'
'axé_'
'avoirs_'
'avenue_'
'autoris'
'autonomes_'
'authentic_'
'attendons_'
'assuré_'
'assured_'
'assumption_'
'associer_'
'assiste'
'assassinat_'
'asks_'
'asc'
'aru'
'ars_'
'arose_'
'armements_'
'arm_'
'arit'
'aries_'
'ard'
'arat'
'apprécie'
'apportée_'
'applaud'
'apparatus_'
'apparaissent_'
'ant'
'ane'
'anal'
'amener_'
'amazing_'
'amateurs_'
'alphabétisation_'
'allég'
'allegedly_'
'alive_'
'alien_'
'alg'
'aidé_'
'aftermath_'
'africain_'
'affirme_'
'affirm'
'affiliée_'
'affiche_'
'affection'
'aff'
'aer'
'advise_'
'advancing_'
'adv'
'admettre_'
'add'
'adaptés_'
'actua'
'acknowledges_'
'acier_'
'acheteur_'
'accordent_'
'accomplished_'
'accompagnée_'
'abs'
'abri_'
'abolish'
'abo'
'abandon'
'ab_'
'] . . _'
'] '
'YH'
'XVII'
'XML_'
'Whi'
'Watch_'
'Wat'
'WA_'
'Visit_'
'Vin'
'Vil'
'Victoria_'
'Verts_'
'VAL'
'Uzbekistan_'
'URL_'
'UA'
'Ty'
'Turn'
'Très_'
'Trinit'
'Trib'
'Trek_'
'Treatment_'
'Trac'
'Torre'
'Tim_'
'Tho'
'Test_'
'Terms_'
'Term_'
'Telephone_'
'Tea'
'Target'
'Tanzania_'
'Tajikistan_'
'Tai'
'TW'
'TIC_'
'Sy'
'Sup'
'Subcommittee_'
'Spo'
'Sol_'
'Shari'
'Share_'
'See'
'Saskatoon_'
'Santos_'
'Saharan_'
'STAT'
'SIS_'
'SG_'
'SADC_'
'Résumé_'
'Région_'
'Rose'
'Roman'
'Rich'
'Revised_'
'Reve'
'Repr'
'Regions_'
'Refugee_'
'Qa'
'QUES_'
'Prov'
'Pros'
'Prop'
'Projets_'
'Proche_'
'Procedures_'
'Priv'
'Pricing_'
'Prec'
'Pr'
'Pont'
'Plat'
'Peri'
'Pere'
'Patr'
'Parallèlement_'
'Pal'
'PR_'
'PMA_'
'PF'
'Olympi'
'Od'
'OH'
'Nothing_'
'Nero_'
'National'
'Nam_'
'NTI'
'NL_'
'NGL_'
'MySQL_'
'Mol'
'Miami_'
'Mesures_'
'Meli'
'Markets_'
'Marina_'
'Marco_'
'Manuel_'
'Mani'
'MM_'
'MIS'
'Liu_'
'Libyan_'
'Liberal_'
'Level_'
'Lav'
'Laeken_'
'Laden_'
'Lac'
'LT_'
'LL'
'Kur'
'Knowledge_'
'Kho'
'Jésus_'
'Jos'
'Jones_'
'Jews_'
'Jan_'
'JE'
'Israelis_'
'Ironing_'
'Internationale_'
'Intelligence_'
'Institutes_'
'Ins'
'Individuals_'
'Impr'
'Id'
'IND'
'IMA'
'IGC_'
'ICE'
'IAL'
'How'
'Hostel_'
'Host'
'Honourable_'
'Henry_'
'Hay'
'Has_'
'Has'
'Harvard_'
'Hara'
'Had_'
'Governance_'
'Golfe_'
'Gil'
'Gal'
'Gabon_'
'GA_'
'Front'
'Friendly_'
'Fri'
'Forestry_'
'Fol'
'Fish_'
'Financement_'
'File'
'Fiji_'
'Field_'
'Fatah_'
'Fal'
'Fair_'
'FORM'
'FA_'
'Exe'
'Excise_'
'Excellency_'
'Ever_'
'Events_'
'Eurostat_'
'Essa'
'Es'
'Equal_'
'Encore_'
'Edward_'
'EO'
'ECE_'
'Dép'
'Dém'
'Dur'
'Duc'
'Dry_'
'Dre'
'Dra'
'Don'
'Domini'
'Dj'
'Distribution_'
'Disney_'
'Discipline_'
'Direct_'
'Database_'
'DPJ_'
'DIN'
'DG'
'DF'
'DANS_'
'Cé'
'Currently_'
'Cru'
'Cres'
'Court'
'Corr_'
'Coopération_'
'Consider_'
'Consid'
'Conse'
'Conce'
'Compagnie_'
'Comments_'
'Comm'
'Clean_'
'Cin'
'Choose_'
'Carlo'
'Canon_'
'Cameroon_'
'CAD_'
'Bug'
'Bond'
'Boa'
'Bhutan_'
'Bay'
'Baltique_'
'Available_'
'Assad_'
'Arms_'
'Arc'
'Ara'
'Ami'
'Alli'
'Allah_'
'All'
'Alcohol_'
'Albert_'
'Ade'
'Active_'
'Acting_'
'Acc'
'Abdul'
'ASE'
'ARE'
'APP'
'ANC'
'; - _'
'208_'
'199'
'149'
'140_'
'125'
'123_'
'120'
'118_'
'000'
'.(_'
', «_'
', [_'
'))_'
'& _'
'# _'
'") _'
' ?'
' . . . _'
' - $_'
' *_'
' ($_'
' $, _'
' $'
' # _'
' !'
''
''
' '
'−_'
'………'
'к'
'з'
'ña'
'ïn'
'ête_'
'évoquer_'
'évolué_'
'étonnant_'
'éth'
'érie'
'ére'
'ération_'
'éradiquer_'
'érable'
'ér'
'équivalen'
'équipée_'
'épisode_'
'épargn'
'épa'
'ém'
'élégante'
'élo'
'éi'
'éduqu'
'éd'
'écrivai'
'économiquement_'
'écologi'
'éclairée'
'èle'
'çons_'
'çai'
'är'
'âch'
'ß'
'Éthiopie_'
'Élection'
'Éd'
'¿_'
' – _'
'zn'
'zen'
'yri'
'yon'
'yen_'
'xu'
'xe'
'wrong'
'worsen'
'worry_'
'worries_'
'wording_'
'withdrawn_'
'with'
'wid'
'wic'
'wi_'
'whole'
'who'
'whenever_'
'wee'
'warnings_'
'warm'
'warfare_'
'wan'
'walks_'
'vérifi'
'vulnérable_'
'vraisemblablement_'
'vra'
'voyager_'
'voter'
'vota'
'volunteer'
'volumes_'
'voisinage_'
'vocal'
'viva'
'vitale_'
'visual'
'visit'
'vingtième_'
'vie'
'vic_'
'viab'
'vessel_'
'vertical_'
'versement_'
'variées_'
'vant_'
'vaisse'
'vaccin_'
'vacant_'
'ué'
'ust'
'uss'
'usc'
'urgente_'
'ups_'
'unresolved_'
'unpre'
'universe_'
'univers_'
'underscore'
'underground_'
'uncom'
'ums_'
'umn'
'ume_'
'umb'
'um'
'ular'
'ught'
'uez_'
'uel_'
'udi'
'tués_'
'tué_'
'turcs_'
'tum_'
'tuberculosis_'
'tron'
'tro_'
'triumph'
'trimestre_'
'trick'
'tria'
'travers'
'transposition_'
'transmises_'
'translati'
'transférer_'
'transformed_'
'transferring_'
'traduire_'
'traders_'
'trade'
'toxicoman'
'tortur'
'top'
'tk'
'titulaires_'
'tira'
'tir_'
'tip'
'til'
'tighten'
'tif'
'thérapeutique'
'thématiques_'
'thu'
'throw_'
'threatens_'
'textiles_'
'teu'
'terreur_'
'terrains_'
'termination_'
'tenues_'
'teneur_'
'tene'
'tends_'
'tells_'
'tein'
'teen'
'techno'
'tche'
'taxable_'
'tary_'
'tarifaires_'
'tape'
'talked_'
'talents_'
'tailored_'
'séparés_'
'syrien'
'sv'
'suspects_'
'sus'
'surviv'
'surr'
'surprisingly_'
'surpr'
'surpluses_'
'surge'
'supermar'
'summits_'
'sum'
'suffisants_'
'successive'
'success'
'subscribe_'
'sté'
'string_'
'strictes_'
'stresses_'
'stream_'
'ston'
'stipulate'
'stimulate_'
'stimulant'
'stick'
'statu'
'star'
'ssan'
'sq'
'spr'
'spouse_'
'sponsored_'
'spectrum_'
'spectre_'
'spacieuses_'
'soum'
'souhaitable_'
'souhait_'
'souffert_'
'sollicit'
'soir'
'soigneusement_'
'socialistes_'
'soc'
'smooth_'
'slip'
'sight_'
'sick_'
'shore_'
'shop_'
'shooting_'
'shifts_'
'shee'
'shal'
'shad'
'sexy_'
'sew'
'severely_'
'servicing_'
'serez_'
'sequence_'
'sentir_'
'semestre_'
'sels_'
'securing_'
'secular_'
'secrets_'
'seasonal_'
'scu'
'scr'
'scores_'
'sche'
'sch'
'sauvegarder_'
'satur'
'sand_'
'salva'
'salons_'
'saisie_'
'sah'
'safely_'
'safeguarding_'
'rêve_'
'rê'
'réé'
'révolution'
'réunit_'
'résolue_'
'réservés_'
'répondant_'
'répartis_'
'rép'
'réjoui'
'réclame_'
'réciprocité_'
'réaliste_'
'réaffirme'
'rve'
'russes_'
'row'
'routière_'
'routier_'
'rously_'
'romp'
'rob'
'road'
'rn'
'rma'
'rival_'
'riti'
'rite'
'rise'
'rine_'
'rib'
'rhetoric_'
'retrouv'
'retenus_'
'rete'
'resum'
'resu'
'restoring_'
'restitu'
'resign'
'repris_'
'repression_'
'repe'
'repair'
'reo'
'renv'
'rentable_'
'renonc'
'renminbi_'
'renew'
'rendra'
'rendered_'
'reinforcing_'
'reinforced_'
'registra'
'rega'
'refund'
'refr'
'recommandé'
'recommandons_'
'react_'
'rats_'
'ratios_'
'ras_'
'rar'
'ramener_'
'ral'
'rais_'
'quête_'
'qués_'
'quote_'
'quelqu_'
'quarters_'
'quart'
'qualify_'
'pushing_'
'publishing_'
'publish_'
'ptu'
'prévoyant_'
'prév'
'prétendre_'
'prétend_'
'prépare_'
'prédire_'
'préca'
'provoke'
'provinciales_'
'protectionism_'
'prospère_'
'proposent_'
'propo'
'promotions_'
'promotional_'
'projection_'
'profoundly_'
'produites_'
'procède_'
'probabilité_'
'probability_'
'privilégiée_'
'privilégie'
'privati'
'primauté_'
'prevail'
'presentations_'
'preceding_'
'pousse_'
'pourparlers_'
'postal_'
'portray'
'portait_'
'populist_'
'poorer_'
'polls_'
'poke'
'pluri'
'plum'
'plug'
'plastique_'
'plas'
'plant'
'plaisan'
'plafon'
'placements_'
'pié'
'pistes_'
'pis'
'piano_'
'pi_'
'physicians_'
'photographe'
'phor'
'pho'
'phe'
'pertaining_'
'persuade'
'personali'
'permanents_'
'pente'
'pement_'
'peacefully_'
'patron'
'pati'
'passif_'
'parvenu_'
'parven'
'partiellement_'
'particles_'
'parental_'
'parallèlement_'
'pap'
'panac'
'palestiniens_'
'paint'
'pacifiques_'
'ows_'
'overlap_'
'outlook_'
'outl'
'ount'
'oua'
'oth'
'ost_'
'ort'
'originating_'
'ore'
'ordres_'
'orateur_'
'optimism_'
'optim'
'opium_'
'ood_'
'onis'
'onie'
'oma'
'oin'
'offenders_'
'off'
'océan_'
'oci'
'occupés_'
'oc_'
'négative_'
'nutriti'
'nuis'
'notifi'
'note'
'normali'
'nod'
'nineteenth_'
'night'
'nia_'
'nen_'
'nement'
'neighbor'
'neg'
'nea'
'nds_'
'ndi'
'nded_'
'nde_'
'nche'
'navigate'
'natal_'
'médicales_'
'médiateur_'
'mé_'
'mutuellement_'
'musée_'
'murs_'
'murder'
'mur_'
'multiplie'
'multilatérales_'
'moul'
'motivations_'
'mothers_'
'mort'
'montagnes_'
'mona'
'modestes_'
'modernité_'
'modernis'
'mitigation_'
'mirror'
'mira'
'mineral_'
'minds_'
'mille_'
'mille'
'mile_'
'migra'
'microbi'
'mettra_'
'mettr'
'meta'
'messager'
'mess'
'meri'
'merger_'
'menacent_'
'medieval_'
'meantime_'
'mbr'
'matches_'
'mask'
'margin_'
'marchand'
'manquer'
'malades_'
'macroéconomiques_'
'lâ'
'luxurious_'
'lumineu'
'luc'
'lourd_'
'logistic'
'lock'
'liz'
'list'
'lisation_'
'lis_'
'lior'
'lion'
'limiting_'
'limit'
'life'
'licite'
'leçon_'
'letters_'
'lentement_'
'lent'
'lene'
'lend_'
'learn'
'lde'
'lava'
'lav'
'lande'
'lan_'
'lah_'
'ku_'
'kne'
'kind'
'kin'
'kilometers_'
'kid'
'keywords_'
'ket_'
'justifié_'
'just'
'juridiquement_'
'jun'
'jouit_'
'joli'
'joindre_'
'joie_'
'ject'
'israéliens_'
'isolement_'
'islam_'
'irres'
'iors_'
'ior'
'ioni'
'ion'
'inévitable_'
'invoqué'
'investigated_'
'inverse'
'inutile_'
'intérieurs_'
'intéressé_'
'intéressent_'
'intéressante_'
'intégr'
'intersection_'
'interrogé'
'intensify_'
'intensi'
'instituts_'
'insistan'
'ino_'
'inn'
'injustice_'
'inis'
'inférieurs_'
'informée_'
'influen'
'inf'
'inex'
'ines'
'inequalities_'
'ined_'
'industrialis'
'induced_'
'individu_'
'indirectement_'
'indig'
'indifféren'
'indict'
'incite_'
'incendi'
'inc'
'inappropriate_'
'imply_'
'implied_'
'implant'
'impe'
'immuno'
'ime'
'ima_'
'im'
'illégales_'
'illégal_'
'igen'
'ific'
'ies'
'idéologique_'
'idéale_'
'ido'
'ideological_'
'identifié_'
'hétéro'
'héros_'
'hyp'
'hydra'
'husband_'
'hos'
'horizon_'
'homog'
'ho_'
'histori'
'his'
'highlights_'
'hierarch'
'herbe'
'hell_'
'hel'
'hazard_'
'hast'
'harmony_'
'harmonie_'
'harcèlement_'
'haine_'
'habitats_'
'habita'
'gym_'
'gula'
'gue'
'grid_'
'green'
'grav'
'grass'
'gras_'
'graphie_'
'gramm'
'gne'
'glad_'
'geri'
'geographic_'
'geni'
'generat'
'gem'
'gee'
'gathering_'
'gate'
'gas'
'gameplay_'
'félicita'
'fur_'
'fumeur_'
'fum'
'freeze_'
'francophones_'
'franchise_'
'frameworks_'
'four'
'forwarded_'
'formidable_'
'forge_'
'foresti'
'foll'
'foli'
'fol'
'fit'
'fiscalité_'
'fired_'
'finir_'
'fina'
'fille_'
'fil'
'fighter'
'fiction_'
'ferm'
'fer'
'fect'
'favourable_'
'faute_'
'fault_'
'fall'
'faithful_'
'faisaient_'
'fais_'
'failures_'
'faille_'
'factory_'
'extrait'
'extends_'
'exprimés_'
'exprimée_'
'expressly_'
'exploitations_'
'exploitants_'
'expir'
'even'
'eure'
'estima'
'esi'
'eras'
'envisaged_'
'envelop'
'envahi'
'entretenu_'
'entretenir_'
'entrent_'
'entremise_'
'entraver_'
'entrance_'
'entour'
'ententes_'
'ente'
'enregistrements_'
'enr'
'enjoys_'
'engra'
'englob'
'engagées_'
'eness_'
'endless_'
'ender_'
'enda'
'empti'
'empower'
'empo'
'emphasize_'
'emm'
'elite_'
'elie'
'ego'
'effr'
'efficiently_'
'efficience_'
'ecosystems_'
'ecl'
'eci'
'ebo'
'eate'
'easi'
'earnings_'
'détérior'
'détruit'
'détr'
'détien'
'déterminés_'
'détaillants_'
'désigne_'
'dés_'
'déré'
'dépr'
'déposés_'
'déposant_'
'démocratisation_'
'délit_'
'définie_'
'dédo'
'décrites_'
'découp'
'découle_'
'décor_'
'déclarée_'
'décid'
'début'
'débouché'
'drafted_'
'dra'
'downturn_'
'douce_'
'dop'
'distribués_'
'distract'
'distances_'
'dissidents_'
'dissi'
'disparités_'
'diso'
'disciplines_'
'disappoint'
'disadvantaged_'
'dire'
'dim'
'did'
'dicta'
'deteriorat'
'desquelles_'
'desktop_'
'demonstration_'
'deliver'
'deli'
'ddi'
'databases_'
'das_'
'damaged_'
'célébrer_'
'câble_'
'cyber_'
'cuis'
'cs'
'créat'
'crus'
'critiqué'
'critics_'
'cris'
'cree'
'coûte_'
'cout'
'countryside_'
'counterparts_'
'coté_'
'cotton_'
'corde'
'cord'
'coordonnées_'
'cooperating_'
'cooking_'
'convo'
'converge'
'contrôlé_'
'contrairement_'
'contracting_'
'continually_'
'contingents_'
'contiennent_'
'contaminé'
'contaminated_'
'containers_'
'contacter_'
'consulting_'
'consid'
'consi'
'conserva'
'conscients_'
'conscient_'
'connect_'
'conjointes_'
'congratulat'
'confidential_'
'conditioned_'
'concret_'
'conclut_'
'compétition_'
'compétent_'
'compulsory_'
'compréhensible_'
'compr'
'composante_'
'comportent_'
'compact_'
'communisme_'
'communion_'
'communica'
'commits_'
'commercialis'
'combines_'
'combina'
'colli'
'collectif_'
'coins_'
'clôture_'
'clé'
'clinics_'
'cleaning_'
'clar'
'clai'
'circula'
'cir'
'cion'
'cinéma_'
'cides_'
'chuté_'
'chute'
'chirurgi'
'chiffre_'
'chia'
'chau'
'charis'
'chante'
'champion'
'chairman_'
'certifié'
'certificat_'
'centr'
'cease'
'cd'
'cateur_'
'catastrophi'
'catalogue_'
'cartridge_'
'carr'
'capteur'
'capitalis'
'cals_'
'cale_'
'calculs_'
'cai'
'cade'
'bureaucracy_'
'bulle_'
'bubbles_'
'bres_'
'branches_'
'boîtes_'
'bout'
'book'
'bonn'
'bombs_'
'bod'
'boasts_'
'bloc_'
'bleu'
'blanchiment_'
'biodiversité_'
'bio_'
'bin'
'bia'
'bau'
'basées_'
'basse_'
'banned_'
'ballo'
'baissé_'
'bailout_'
'bail'
'bag'
'avi'
'avat'
'ava'
'av'
'autonomy_'
'automne_'
'automatisé'
'autoc'
'augmentations_'
'audition'
'audiences_'
'attracted_'
'atteste'
'attendance_'
'atlantique_'
'atif_'
'ath_'
'aster'
'assuming_'
'assisted_'
'asp_'
'ase_'
'arrêtée'
'arro'
'arrestation_'
'arrange_'
'arra'
'aptitude_'
'appuient_'
'approximate_'
'approuve_'
'approfondir_'
'apprais'
'appos'
'appel'
'apparu_'
'apparente_'
'aph'
'any'
'antir'
'antid'
'ante'
'answered_'
'ans'
'annonce'
'angulaire_'
'ande'
'anda_'
'anda'
'ament_'
'ambassade_'
'aliz'
'ald_'
'aka_'
'ait'
'airline'
'ains_'
'agressi'
'ageing_'
'aga'
'afi'
'afghan_'
'affr'
'affirmative_'
'affaiblir_'
'adéquates_'
'adr'
'adoptant_'
'adopt'
'administratifs_'
'adaptée_'
'acu'
'accumule'
'accrues_'
'accreditation_'
'accompagnés_'
'accompagne_'
'accessoires_'
'accentu'
'acce'
'absurd'
'absorption_'
'abor'
'abilité_'
'abe'
'\\'
'[ _'
'XXI'
'XX'
'Writ'
'Word_'
'Wor'
'WiFi_'
'Where'
'Wen'
'Week'
'Website_'
'Water'
'WP'
'Vladimir_'
'Vista_'
'Via_'
'Vend'
'Vehicle_'
'Van'
'Value_'
'VIII_'
'VH'
'VEL'
'VA_'
'Ut'
'Use'
'Us'
'Uribe_'
'Upon_'
'Um'
'Ult'
'UVE'
'UTI'
'ULA'
'UH'
'Té'
'Twi'
'Turkmenistan_'
'Tul'
'Trust_'
'Trouver_'
'Troisième_'
'Tom_'
'Though_'
'Ther'
'Text'
'Tat'
'Tarif'
'Take_'
'TU'
'TTE'
'TRE'
'TRANS'
'TIONS_'
'TER_'
'TCI_'
'Sénégal_'
'São_'
'Supplement_'
'Stre'
'Stra'
'Ster'
'Stea'
'St'
'Sr'
'Spe'
'Sound_'
'Soleil_'
'Sky'
'Situated_'
'Short_'
'Seve'
'Settlement'
'Set'
'Sel'
'Saoudi'
'Sainte_'
'Safe'
'SYST'
'SP_'
'SCO'
'SAR'
'Résultats_'
'Roosevelt_'
'Ron'
'Revi'
'Rest'
'Reserv'
'Rei'
'RY_'
'RM'
'Que'
'QU'
'Pér'
'Py'
'Pur'
'Pul'
'Prosecutor_'
'Prom'
'Projects_'
'Programmes_'
'Produ'
'Principal'
'Previous_'
'Premi'
'Pot'
'Pool_'
'Polit'
'Policies_'
'Ple'
'Plasma_'
'Pil'
'Photo'
'Phone_'
'Phil'
'Pent'
'Peacekeeping_'
'Paul'
'Parks_'
'Park'
'Parent'
'PWGSC_'
'PRST_'
'PROP'
'POL'
'Over'
'Oslo_'
'Organis'
'Oceans_'
'ONT'
'OGM_'
'OG'
'OE'
'Nunavut_'
'Nov'
'Nou'
'Noting_'
'Norman'
'Nonetheless_'
'Nikon_'
'Need'
'Near'
'Nazi_'
'Natura_'
'Nar'
'NOTE_'
'NGO_'
'Munich_'
'Mouvement_'
'Morales_'
'Mont_'
'Mitchell_'
'Mira'
'Mini'
'Mind'
'Mille'
'Mike_'
'Mig'
'Mich'
'Method'
'Mb'
'Mauritius_'
'Materi'
'Mass_'
'Marketing_'
'Mano'
'Maj'
'Main'
'Magi'
'Magazine_'
'MR'
'MINU'
'MIN'
'Lyon_'
'Lyn'
'Lun'
'Lum'
'Louis_'
'Lituanie_'
'Lis'
'Libéria_'
'Legislative_'
'League_'
'Lama'
'Lac_'
'LIN'
'LD'
'Kr'
'Kou'
'Kin'
'Khan_'
'Khamenei_'
'Kh'
'Kas'
'Juan_'
'Jen'
'Issue_'
'Interim_'
'Integrated_'
'Institutional_'
'Install'
'Initiatives_'
'Ind'
'Ibis_'
'IU'
'ITI'
'INST'
'IAEA_'
'Hyper'
'Hydro'
'Hy'
'Hop'
'Hom'
'High'
'Hamb'
'Hall_'
'HOM'
'Général'
'Gus'
'Guan'
'Gua'
'Gru'
'Gran_'
'Grad'
'Golan_'
'Gallery_'
'GS_'
'GRE'
'GM_'
'Fé'
'Freedom_'
'Franklin_'
'Francis_'
'Fix'
'Fis'
'Fire_'
'Feature'
'Fall'
'Fait'
'Fact'
'FU'
'FM_'
'FM'
'FI_'
'FD'
'Expo'
'Experience_'
'Expenditures_'
'Exc'
'Evi'
'Everything_'
'Ethics_'
'Estimates_'
'Este'
'Eri'
'Equi'
'Equality_'
'Ep'
'Eg'
'Ecol'
'Ec'
'ESS'
'EG_'
'EEC_'
'ECT'
'Défini'
'Décision_'
'Dy'
'Dura'
'Dos'
'Dialogue_'
'Dev'
'Decade_'
'Damas'
'DT'
'DB'
'Cycl'
'Cry'
'County_'
'Cou'
'Concern'
'Composite_'
'Compar'
'Color'
'Coc'
'Cleaning_'
'Claude_'
'Cl'
'Cirque_'
'Cinquante_'
'Churchill_'
'Christ'
'Chris_'
'Chemi'
'Charge_'
'Champ'
'Ces'
'Centr'
'Cav'
'Catherine_'
'Cath'
'Cara'
'Call_'
'Calgary_'
'CW'
'CUL'
'CTION_'
'CHI'
'CHE'
'CBSA_'
'CAT'
'Bâle_'
'By'
'But'
'Burn'
'Burg'
'Bun'
'Bs_'
'Britanniques_'
'Bri'
'Bour'
'Boston_'
'Bon_'
'Bolivie_'
'Blu'
'Benin_'
'Belle'
'Belgrade_'
'Belgian_'
'Basel_'
'Baltic_'
'Bai'
'BT_'
'BLE'
'BEI'
'Ay'
'Autrement_'
'Attach'
'Assi'
'Aru'
'Arctic_'
'Archi'
'Arb'
'Arabs_'
'Arabes_'
'Applause_'
'Anna_'
'Angel'
'Analy'
'Alternative_'
'Alte'
'Alpes_'
'Almost_'
'Alla'
'Ali_'
'Alexandr'
'Albanian_'
'Aide_'
'Agencies_'
'Aff'
'Advi'
'Adobe_'
'Administrator_'
'Activ'
'Abdel'
'Abd'
'AU'
'ATTENDU_'
'AR_'
'AIEA_'
': '_'
'93'
'58'
'500'
'300'
'230_'
'19th_'
'1980s_'
'1966_'
'181'
'178_'
'165_'
'145'
'139'
'134_'
'126'
'121'
'119_'
'113_'
'108_'
'104_'
'020'
'014'
'011'
'001_'
'.»'
'----'
',&'
', $_'
'** _'
'); '
')  _'
'% (_'
'!!_'
' € _'
' °_'
' >_'
' :'
' +_'
' )'
' («'
' %'
' ", _'
' !!!_'
''
'ﬁ'
'− _'
'  [ _'
'“(_'
'‘_'
'у'
'œuvre'
'ôme_'
'ó_'
'évènements_'
'évité'
'évi'
'étiques_'
'étions_'
'étendue_'
'étend_'
'éte'
'étatiques_'
'érence'
'équi'
'épid'
'ép'
'énormément_'
'émo'
'émique_'
'électorales_'
'élargi_'
'élabor'
'égal'
'éfi'
'édu'
'éde'
'écras'
'écoute_'
'è_'
'çant_'
'Évaluation_'
'Éc'
'§'
'}}'
'} '
'| _'
'zo_'
'zio'
'zer'
'yy'
'yuan_'
'yse'
'yle'
'ybo'
'yad'
'xte'
'writers_'
'witnessed_'
'win'
'weight'
'vérifie'
'vul'
'votreliste_'
'volontairement_'
'vole'
'voisin_'
'vocation_'
'vivons_'
'vitamin_'
'vita'
'visé_'
'visuel'
'visual_'
'visite'
'virtuelle'
'virtue_'
'vide'
'vid'
'vested_'
'versées_'
'versements_'
'venus_'
'ventilation_'
'veni'
'venai'
'veg'
'vai'
'vaga'
'vaccines_'
'vable_'
'utilize'
'usness_'
'usion'
'use'
'uri'
'urgents_'
'uphold_'
'updating_'
'unwilling_'
'unh'
'unfo'
'understandable_'
'underpin'
'undeniable_'
'unchanged_'
'ultérieur'
'uil'
'ui_'
'uge'
'uff'
'ueux_'
'uen'
'uelles_'
'uce'
'uali'
'u0027s_'
'télévis'
'turns_'
'tun'
'tuer_'
'ttle'
'tting_'
'trip'
'trich'
'tribu'
'tremendous_'
'traçabilité_'
'travailleur_'
'travaillant_'
'traumati'
'transporter_'
'transplant'
'transparente_'
'transmis_'
'transmi'
'transmet'
'transitoire_'
'traitent_'
'trail_'
'trademark_'
'toxic'
'touchée_'
'tos'
'toni'
'tomber_'
'tli'
'titu'
'tisse'
'tirent_'
'théorique'
'threaten_'
'thir'
'thinks_'
'thin_'
'there'
'tester_'
'terr'
'terminée_'
'terminé_'
'tered_'
'tenth_'
'temp'
'technici'
'taxpayer_'
'tas_'
'tarif'
'tari'
'tank'
'table'
'sérieuse_'
'séparément_'
'séparé'
'sépar'
'sécuritaire_'
'syrienne_'
'synthèse_'
'syndicat_'
'symp'
'syl'
'suédois_'
'suspend'
'suscité_'
'surv'
'surpris_'
'surfaces_'
'surf'
'supprimé_'
'suppr'
'supervisory_'
'sulf'
'suivi'
'suffi'
'subt'
'substanti'
'subsistance_'
'subsidia'
'subse'
'subregional_'
'subjected_'
'stylish_'
'styles_'
'sty_'
'stunning_'
'studying_'
'studied_'
'stringent_'
'str'
'stimulat'
'stif'
'stee'
'steadily_'
'stating_'
'start'
'standardized_'
'stabiliz'
'ssez_'
'sque'
'spécifications_'
'spécialiste_'
'sporti'
'sponsor_'
'spokes'
'spite_'
'spectr'
'specta'
'specialist_'
'special'
'sov'
'souveraine_'
'souple_'
'soulève_'
'soulever_'
'souhaiter_'
'souhaitai'
'sorti'
'sommets_'
'sombre_'
'solid'
'solar_'
'soign'
'sod'
'smokers_'
'smallest_'
'slowdown_'
'slot'
'sl'
'situent_'
'sist'
'sional_'
'simplifie'
'simplicit'
'sim'
'sili'
'significatif_'
'signalé'
'signale'
'sign'
'sig'
'sif'
'sier'
'sia'
'shri'
'shr'
'shocks_'
'shock_'
'shing_'
'shin'
'shelter_'
'shak'
'shadow_'
'sexuel_'
'sexu'
'serbe_'
'sentier'
'sentences_'
'sentenced_'
'senta'
'sends_'
'seme'
'sembler'
'semblables_'
'seeds_'
'sec_'
'searching_'
'sc'
'saved_'
'sava'
'sav'
'sanitation_'
'sanitaire_'
'samedi_'
'sais'
'safer_'
'sacrifice_'
'révélée'
'réveil'
'rétroacti'
'résume'
'résister_'
'résist'
'résidu'
'résident_'
'répéter_'
'répondr'
'répertoire_'
'réparti'
'réhabilitation_'
'réguliers_'
'réfléchir_'
'réf'
'réduits_'
'récu'
'récolte_'
'réco'
'réclam'
'rvi'
'rus_'
'ru_'
'royale_'
'rout'
'rouges_'
'roi'
'rocket'
'roc'
'robust_'
'riz_'
'ris_'
'rier_'
'ridd'
'richer_'
'ric'
'rial_'
'rhétorique_'
'rgani'
'revêt'
'revol'
'reviendrait_'
'reven'
'retro'
'retraites_'
'retourner_'
'rethink'
'retenue_'
'restructure'
'resteront_'
'ression_'
'ressi'
'responsabilisation_'
'rese'
'représentera'
'reproduced_'
'repr'
'repos'
'repatriation_'
'rentr'
'rent'
'renouvel'
'renf'
'remplis'
'remonte_'
'remarqué_'
'remarquable'
'reiterated_'
'reinforce_'
'reimbursement_'
'rei'
'regrettable_'
'regrett'
'regard'
'refusing_'
'references_'
'referen'
'reel_'
'redress'
'recyclage_'
'recueillies_'
'recueille_'
'rectifi'
'rect'
'recreation'
'recover'
'recons'
'reconnues_'
'reconnaissant_'
'recommen'
'recommander_'
'recevra_'
'receiv'
'rebelles_'
'rdi'
'ray'
'rationaliser_'
'rassembler_'
'rappel'
'rant'
'ranc'
'rall'
'raj'
'raisonnablement_'
'railways_'
'radar_'
'ract_'
'quoted_'
'quinze_'
'quie'
'questionnaires_'
'quest'
'quer'
'qualitative_'
'qualifier_'
'qualification_'
'pénalités_'
'pénales_'
'pée'
'pèlerin'
'publishe'
'psychiatri'
'préten'
'présentera_'
'prépara'
'préoccupée_'
'préjudiciables_'
'préjudic'
'préférer'
'précis'
'préalables_'
'prostitu'
'prosecut'
'proposing_'
'propag'
'promulgué'
'promptly_'
'promesse_'
'prolonge'
'profiles_'
'profess'
'productif_'
'procéd'
'prize_'
'privil'
'priver_'
'preservation_'
'prescribe_'
'prer'
'prep'
'prena'
'premium_'
'prefer'
'predi'
'precision_'
'practic'
'potassium_'
'posées_'
'postpone'
'possess'
'position'
'portage_'
'porta'
'pommes_'
'pollu'
'polis'
'pole'
'poison'
'pod'
'pléni'
'pledged_'
'plateforme_'
'plat'
'plantation'
'placing_'
'pixels_'
'pira'
'pipelines_'
'pill'
'piles_'
'pile'
'php'
'phobi'
'pharmacie'
'personnalité_'
'permette_'
'permanently_'
'periphery_'
'performant'
'perfectionnement_'
'pent'
'penche'
'peace'
'payée_'
'pation_'
'paths_'
'passports_'
'passport_'
'passai'
'partielle_'
'parti'
'paro'
'parlons_'
'parle'
'parity_'
'panoramic_'
'pani'
'pane'
'paludisme_'
'palais_'
'paisible_'
'pag'
'ow'
'oversee'
'overseas_'
'overlook'
'ouvriers_'
'outs_'
'ousi'
'ouri'
'oul_'
'oue'
'oubli'
'ots_'
'otage_'
'orta'
'origins_'
'ories_'
'oriental_'
'orienta'
'organisms_'
'organi'
'organ_'
'order'
'opér'
'optical_'
'opti'
'opponents_'
'operator_'
'ony_'
'onne'
'onese'
'onary_'
'omo'
'omission_'
'ome_'
'omb'
'olympique'
'olla'
'ole_'
'olate_'
'oint'
'offici'
'odd'
'och'
'oceans_'
'occidentales_'
'obligés_'
'obligé_'
'obligat'
'obli'
'oba'
'néo'
'négatives_'
'nécessiter'
'néa'
'nutritionnel'
'ntl'
'nota'
'nos'
'normalisé'
'normales_'
'norm_'
'nominations_'
'nog'
'nm'
'nitrogen_'
'nism'
'nic_'
'nger_'
'newspapers_'
'nerve'
'nell'
'nee'
'neck'
'naï'
'nano'
'nam'
'naires_'
'nab'
'métaux_'
'més_'
'médiati'
'mères_'
'mèner'
'mutati'
'multipli'
'multilatéraux_'
'multilatéralisme_'
'multilatéral_'
'multilateralism_'
'multiculturel'
'mout'
'mous'
'mounted_'
'motivé_'
'montrant_'
'monast'
'modélisation_'
'modifiés_'
'modifiant_'
'moderni'
'moderat'
'model'
'modalities_'
'mobilis'
'mobiles_'
'mixtes_'
'misunderstanding'
'miss_'
'miser'
'mique'
'minist'
'minimales_'
'milli'
'migrate'
'mie_'
'mettons_'
'merge'
'menant_'
'menacés_'
'menacé_'
'menacer_'
'memorandum_'
'melt'
'medication'
'measur'
'mbu'
'mb_'
'masses_'
'masque'
'marketplace_'
'mark'
'marins_'
'marginal_'
'maps_'
'manqu'
'manipulation_'
'mandated_'
'mand'
'maltrait'
'malnutrition_'
'males_'
'magnitude_'
'magazines_'
'magasin_'
'légères_'
'légère_'
'légales_'
'lég'
'lve'
'lut'
'lunch_'
'ls'
'looming_'
'longe'
'logiques_'
'localiz'
'lment'
'lled_'
'liv'
'littéra'
'litigation_'
'lip'
'linkages_'
'lining_'
'ling'
'lign'
'lights_'
'lighting_'
'light'
'lieutenant'
'licensing_'
'lic'
'liberal'
'lia_'
'leu'
'lette'
'lett'
'lente_'
'leng'
'lender'
'leather_'
'leas'
'lawful'
'latin'
'landing_'
'laiss'
'lage_'
'kto'
'kovsk'
'kma'
'km'
'kilo'
'ket'
'kel'
'justement_'
'jug'
'judicieux_'
'jouets_'
'jon_'
'jo_'
'jets_'
'jeopard'
'jacent'
'itis'
'itan'
'isé_'
'ission'
'isses_'
'isse_'
'isc'
'irlandaise_'
'irlandais_'
'iries_'
'ire'
'irat'
'iraquien'
'inviting_'
'invi'
'investisse'
'investi_'
'intéresser_'
'intégralement_'
'interv'
'interop'
'intermediate_'
'interdépendan'
'intera'
'intent_'
'intend'
'instrumenta'
'institutionnalis'
'institu'
'instaur'
'inspir'
'insolvabilité_'
'insens'
'insect'
'inscri'
'inondations_'
'inno'
'inner_'
'inhumains_'
'inh'
'infringe'
'informe'
'influenced_'
'infi'
'infest'
'infectieuses_'
'inent'
'ineffective_'
'indice_'
'indicator_'
'independently_'
'ind'
'incumbent_'
'incorpor'
'inconsistent_'
'imprisonment_'
'imprimé'
'imper'
'impede'
'immuni'
'immune_'
'imminent_'
'ily_'
'illustrat'
'illu'
'iles_'
'ik_'
'igu'
'igne'
'igation'
'iga'
'ifa'
'ielle'
'idéologie_'
'identifies_'
'identical_'
'ico'
'ich'
'icate'
'ican'
'héroï'
'hypothè'
'hypo'
'hyperlien_'
'hygiène_'
'hri'
'hosting_'
'honor'
'holisti'
'hinder'
'hide_'
'hes'
'herself_'
'herein_'
'hement_'
'hedge_'
'hau'
'hasard_'
'harvest_'
'harge'
'hani'
'handled_'
'handicap'
'habituelle'
'habitu'
'hab'
'généralisée_'
'géno'
'gère_'
'gy_'
'gy'
'gw'
'guise_'
'gues'
'guerri'
'groupe'
'grossi'
'grief'
'grains_'
'gradual_'
'governor_'
'govern_'
'gourm'
'gori'
'god'
'gnan'
'glor'
'globales_'
'gho'
'get'
'geopolitical_'
'genuinely_'
'general'
'gd'
'gate_'
'gari'
'gardien'
'gardens_'
'garanti_'
'galleries_'
'gage_'
'fête'
'fusil'
'fur'
'fréquent'
'fro'
'frie'
'frein'
'fran'
'frames_'
'fourniss'
'fortun'
'formerly_'
'formally_'
'forma'
'form'
'forecasts_'
'forecast_'
'forecast'
'foodstuffs_'
'font'
'fondation_'
'fondateurs_'
'fondamentalement_'
'flying_'
'fluor'
'fli'
'fleuve_'
'flamm'
'fixes_'
'fin'
'film'
'filiales_'
'figurer_'
'ffé'
'feux_'
'ferai'
'fears_'
'fd'
'favour'
'favorisé'
'favorise_'
'fausse_'
'fastest_'
'fashion'
'fame'
'falsifi'
'false_'
'fais'
'facilite_'
'fabric_'
'fab'
'eys_'
'ey'
'exécute'
'extrémistes_'
'extrajudicia'
'extr'
'extensions_'
'expérimenté'
'expédi'
'expositions_'
'exportateurs_'
'explications_'
'expansion'
'exonér'
'exigent_'
'exhausti'
'exercises_'
'exempte'
'exempt'
'excessive'
'excessif_'
'exceeded_'
'exceed'
'examinés_'
'exact'
'exacerbate'
'evo'
'ev'
'euti'
'euro'
'eté_'
'eter_'
'estimer_'
'escalade_'
'erv'
'ert_'
'ert'
'erra'
'erosion_'
'eric_'
'eric'
'erb'
'erate'
'erai_'
'epidemic_'
'envoie_'
'envi'
'env'
'entré_'
'entries_'
'entrevue_'
'entrepreneur_'
'entraînement_'
'ential_'
'enth'
'entamer_'
'ensui'
'enrichissement_'
'enregistrées_'
'enor'
'enn'
'enjoyment_'
'enjoying_'
'english_'
'engineer'
'enemy_'
'encouragé_'
'encountered_'
'enceintes_'
'enact'
'emprunte'
'emotional_'
'emo'
'emergence_'
'embe'
'ela_'
'eh_'
'efforcer_'
'effectue_'
'effect'
'educate_'
'ection_'
'ecti'
'ease'
'ears_'
'dévoil'
'déterminées_'
'déte'
'déséquilibre_'
'désiré'
'désign'
'désactiv'
'désaccord_'
'déroulé'
'déroul'
'dérivés_'
'dépo'
'déplacent_'
'dépassé_'
'départements_'
'décrire_'
'décri'
'découvertes_'
'déclenché'
'débute'
'débiteur_'
'débattu_'
'débarrass'
'dt_'
'drought_'
'dress'
'drait_'
'douz'
'doux_'
'douanier'
'dos'
'doom'
'donations_'
'domine'
'dominate_'
'dome'
'divi'
'distributions_'
'disproportionate'
'disposé_'
'disposant_'
'displacement_'
'dismissal_'
'discount_'
'disagree_'
'disadvantage_'
'dio'
'dict'
'diabète_'
'devrez_'
'devote_'
'developer_'
'devaluation_'
'deuxièmement_'
'deterioration_'
'destroying_'
'desp'
'departure_'
'dental_'
'densité_'
'dens'
'demonstrating_'
'demonstrates_'
'demi'
'demanded_'
'delta_'
'dell'
'delegates_'
'defensive_'
'defenders_'
'defen'
'decree'
'decentraliz'
'debating_'
'dealings_'
'céréales_'
'cyclique'
'cyclical_'
'custom_'
'custody_'
'cun'
'cumulati'
'cultivate'
'cule_'
'cruel'
'cruciale_'
'croître_'
'croyan'
'crowd'
'crib'
'creativity_'
'crates_'
'coûter'
'coutume'
'courte'
'coul'
'corri'
'copie'
'cool'
'conçue_'
'conviennent_'
'convena'
'contreba'
'contre'
'contrainte_'
'contraction_'
'contractante'
'contr'
'contextes_'
'context'
'conteste'
'contenues_'
'content'
'cont'
'consult'
'constrained_'
'constitutionnelles_'
'constitution'
'constatation'
'conso'
'consist_'
'conseille'
'conse'
'consciente_'
'consacrés_'
'consacrées_'
'connect'
'conflict'
'confié'
'confiscat'
'confine'
'confer'
'cond'
'concurrent'
'conceptu'
'conc'
'compress'
'composants_'
'compliqué'
'compli'
'compa'
'communistes_'
'commodities_'
'commenta'
'comme'
'combustible_'
'combl'
'combin'
'combatt'
'collect'
'coca'
'coa'
'cliquer_'
'clearer_'
'cked_'
'ción_'
'cita'
'circon'
'cime'
'ciblée_'
'chro'
'choosing_'
'childhood_'
'chi_'
'cheese_'
'chauffe'
'charter_'
'charte_'
'chair'
'cessent_'
'cesse'
'cellula'
'cav'
'cateurs_'
'catalyst_'
'carpet'
'carn'
'cardiovascula'
'caractérisé'
'capti'
'caméra_'
'camping_'
'cafe'
'bâ'
'buy'
'butt'
'burst_'
'bureaucratique_'
'bureaucratie_'
'bs'
'brother_'
'briefing_'
'bree'
'breaking_'
'break'
'branch_'
'boursi'
'bourg_'
'bought_'
'bot_'
'bot'
'booked_'
'bone_'
'bond'
'bombarde'
'bloquer_'
'blog'
'blic'
'bli'
'birth'
'biotechnology_'
'bills_'
'bill'
'bienvenue_'
'beneficial_'
'belongs_'
'beliefs_'
'basically_'
'banqu'
'banni'
'ax_'
'avérée'
'avérer_'
'avocats_'
'avertissement_'
'aventure_'
'auti'
'authorization_'
'augmentera_'
'audited_'
'attracti'
'attra'
'attire'
'atti'
'attentat_'
'attend'
'atte'
'attaqu'
'attacked_'
'attache_'
'attach_'
'atout'
'atom'
'assu'
'asserti'
'articul'
'arte'
'arsenal_'
'arn'
'armement_'
'argi'
'arb'
'appréciation_'
'appréci'
'approuvées_'
'approch'
'apportant_'
'appointments_'
'appli'
'appelés_'
'appelant_'
'appear'
'appe'
'appauvri'
'appartiennent_'
'apparaitra_'
'aperçu_'
'ape'
'ao_'
'ao'
'anthrop'
'antenn'
'announce_'
'annexed_'
'anne'
'ann_'
'anger_'
'analytical_'
'améliorant_'
'amène'
'ampli'
'amo'
'amme'
'amitié_'
'amine'
'amending_'
'amende_'
'allé'
'allouée'
'allocat'
'allie'
'allaient_'
'alimenter_'
'alc'
'aiss'
'aise_'
'aining_'
'aima'
'aidant_'
'agréable'
'agression_'
'aggravé'
'aggr'
'afghane'
'affluen'
'affichage_'
'affect'
'affaibli_'
'advocated_'
'advocacy_'
'advise'
'administrateur_'
'adhérer_'
'additionnel_'
'ad'
'activate'
'acr'
'acquisitions_'
'acquise_'
'acid'
'achemin'
'accuse'
'accurately_'
'accru'
'accordés_'
'accordées_'
'accompanying_'
'accessibilité_'
'accepting_'
'accelerat'
'aca'
'abouti_'
'abord'
'abi'
'You'
'Yemen_'
'YS'
'YOU_'
'Xiao'
'XI_'
'XII'
'Wolf'
'Wis'
'Windsor_'
'Wen_'
'Welcomes_'
'Web'
'Wea'
'Waste_'
'WO'
'Vé'
'Vu'
'Vot'
'Vita'
'Villa'
'Victor_'
'Vac'
'VIS'
'VIP_'
'VENT'
'Utilisateur_'
'Utilis'
'Unix_'
'Une'
'UX_'
'UV'
'USS'
'USA'
'UR_'
'UI'
'Télécopieur_'
'Tunis'
'Trial_'
'Transf'
'Tool'
'Tol'
'Title_'
'Theatre_'
'Texas_'
'Taxes_'
'Tadjikistan_'
'Tab'
'TRI'
'TOU'
'TOPIC_'
'TM'
'TEC'
'TAT_'
'TAL'
'Sus'
'Surveillance_'
'Supply_'
'Summ'
'Stock'
'Statistical_'
'Spock_'
'Specific_'
'Solution'
'Solidarity_'
'Smart'
'Situ'
'Sign'
'Sid'
'Shu'
'Serge'
'Senator_'
'Selection_'
'Scotland_'
'Schum'
'Samoa_'
'Sah'
'SCR'
'SCI'
'SB'
'SAT'
'SAN'
'Réservez_'
'Réf'
'Réa'
'Rui'
'Roo'
'Roms_'
'Rod'
'Roche'
'Riv'
'Requirements_'
'Republicans_'
'Renforce'
'Rena'
'Rem'
'Related_'
'Regarding_'
'Recon'
'Recommandations_'
'Reader_'
'Rational'
'Rai'
'RM_'
'RIS'
'RIC'
'RELATI'
'RAL_'
'Quatre_'
'Quali'
'Qaddafi_'
'Puerto_'
'Prév'
'Présidence_'
'Préc'
'Production_'
'Procurement_'
'Print_'
'Prepare'
'Prejudice_'
'Position_'
'Porte'
'Pollut'
'Politic'
'Plu'
'Plant'
'Pea'
'PROVI'
'PRES'
'POS'
'PB'
'PARA'
'Outlook_'
'Oua'
'Others_'
'Organ'
'Offices_'
'Obviously_'
'Observ'
'Objet_'
'Oa'
'OU_'
'OP_'
'ONUDI_'
'OMD_'
'Num'
'Noti'
'Non'
'Nom'
'Nintendo_'
'Nick'
'Neu'
'Nau'
'Nata'
'Nass'
'Nancy_'
'Nag'
'NOT_'
'NOTA'
'NON_'
'NL'
'NI_'
'NF'
'Mét'
'Mul'
'Mous'
'Motor_'
'Monténégro_'
'Moni'
'Monde_'
'Miles_'
'Methods_'
'Men_'
'Mem'
'Me_'
'McL'
'McCain_'
'Max_'
'Maria_'
'Mandat'
'Maint'
'Macédoine_'
'MIL'
'MAT'
'Loss'
'Loi'
'Lim'
'Ligue_'
'Light'
'License'
'Libert'
'Les'
'Left_'
'Lead'
'Lag'
'LV'
'LONDON_'
'Kerry_'
'Keep_'
'Kad'
'KH'
'KD'
'KB_'
'Juni'
'Jud'
'Jordanie_'
'Jeux_'
'Jeu'
'JavaScript_'
'Jama'
'Jack_'
'JO'
'Iraqis_'
'Invites_'
'Investigation_'
'Investigat'
'Investi'
'Intel'
'Indicators_'
'Indians_'
'Impact_'
'Immigration_'
'Image'
'Ici_'
'ITU'
'ITE'
'INI_'
'INE'
'IH'
'IES_'
'ICI'
'Hôtels_'
'Humanitarian_'
'Hollande_'
'Holiday_'
'Hoc_'
'Hillary_'
'Hil'
'Highl'
'Herb'
'Hence_'
'Haa'
'HD_'
'Guantánamo_'
'Gu'
'Groups_'
'Gou'
'Goth'
'Gold_'
'Gift_'
'Gerhard_'
'Genetic'
'Gee'
'Gau'
'Gas_'
'Galle'
'GRP'
'GRC_'
'GPS_'
'GM'
'GEF_'
'GCA_'
'Future_'
'Fraser_'
'Franco_'
'Francisco_'
'Fourni'
'Fortunately_'
'Fort_'
'Forests_'
'Font'
'Fli'
'Fiscal_'
'Fire'
'Fil'
'Fai'
'FOR'
'FL'
'FH'
'Explorer_'
'Exp'
'Eta'
'Estonie_'
'Esprit_'
'Espa'
'Erik'
'Erdo'
'Erasmus_'
'Entr'
'Emirates_'
'Emergency_'
'Effecti'
'EX_'
'ERC'
'EM_'
'Dét'
'Dés'
'Dél'
'Durban_'
'Dub'
'Dru'
'Dr'
'Double_'
'Dou'
'Doo'
'Dom'
'Doctor'
'Dha'
'Determin'
'Deng_'
'Delivery_'
'Deal'
'Davi'
'Daily_'
'DW'
'DOCUMENT'
'DL'
'DEP'
'DELHI_'
'Crisis_'
'Cover'
'Courriel_'
'Corrections_'
'Corp_'
'Continental_'
'Conseiller_'
'Cond'
'Compos'
'Compa'
'Como'
'Communi'
'Combat'
'Collection_'
'Codes_'
'Close_'
'Citizens_'
'Christians_'
'Chicago_'
'Chat'
'Chart'
'Change'
'Carri'
'Cap_'
'Calls_'
'Cale'
'Caisse_'
'Cairo_'
'CV'
'CPU_'
'COP'
'CONF_'
'CIC'
'CGSB_'
'CCA'
'Bélarus_'
'Bé'
'Bundes'
'Brun'
'Bref_'
'Break'
'Bras'
'Bli'
'Black'
'Bil'
'Bet'
'Berne_'
'Bear_'
'Barbuda_'
'Banquet_'
'Baghdad_'
'Bad'
'BE_'
'Aw'
'Avi'
'Ava'
'Aus'
'Associate'
'Arrivée_'
'Arménie_'
'Armed_'
'Arabic_'
'Aqua'
'Appli'
'Antigua_'
'Angeles_'
'Ande'
'Ancien'
'Americas_'
'Alps_'
'Alf'
'Alex'
'Alban'
'Alb'
'Airways_'
'Ahmedinejad_'
'Against_'
'Af'
'Aero'
'Administrat'
'Add'
'Acts_'
'Accounting_'
'Accountability_'
'Acad'
'Abe'
'ASU'
'ARI'
'ANT_'
'ALDE_'
'AH'
'ADN_'
'ADM_'
';»._'
'920'
'88'
'604_'
'4th_'
'2nd_'
'220_'
'21st_'
'207_'
'2050_'
'202'
'1971_'
'1969_'
'1962_'
'188'
'166_'
'157_'
'151_'
'141'
'140'
'135_'
'124'
'111_'
'040'
'007'
'/.'
'./_'
'.). _'
'. “_'
'- (_'
', '_'
') ; _'
'( '
''''
'")._'
'  '
' © _'
' -'
' ''
' $._'
' '
''
''
' '
' '
'ﬁn'
'•'
'”) _'
'ь'
'те'
'м'
'и_'
'д'
'а_'
'Ž'
'üh'
'ûre'
'û'
'ôm'
'ôle'
'îtr'
'í_'
'été'
'étudiant_'
'étit'
'étis'
'éré_'
'éris'
'érien'
'érielle_'
'érent'
'épouse_'
'énie'
'émergeant'
'éloigne'
'élever_'
'égyptien'
'égide_'
'éen_'
'éditions_'
'éditeur'
'édifi'
'écout'
'écoul'
'échéance_'
'ètes_'
'èque_'
'ège'
'ède'
'çu'
'ça'
'âgé_'
'Év'
'ÉTA'
'ÉE'
'   .- _'
'   . – _'
'{'
'zzle'
'zième_'
'zin'
'zes_'
'yé_'
'yé'
'ythm'
'yste'
'yss'
'yield'
'yi'
'yez_'
'yarn'
'yard_'
'yan'
'xénophobie_'
'xt'
'xon'
'xic'
'xe_'
'wr'
'world'
'wm'
'winners_'
'winds'
'windows_'
'wie'
'wheat_'
'wet'
'weaker_'
'weakened_'
'waves_'
'wat'
'wastes_'
'was'
'wards_'
'vêtements_'
'vulnerabilities_'
'voisine'
'vive'
'vital'
'visualis'
'virtuel_'
'viol'
'vif'
'viewing_'
'vien'
'vici'
'vibrant_'
'viability_'
'ves'
'verti'
'versé_'
'verser_'
'verse'
'versa_'
'verr'
'verifi'
'ver'
'vention'
'veno'
'venez_'
'veillant_'
'vegetables_'
'vecteur'
'vau'
'varié'
'valley_'
'validité_'
'vale'
'vain_'
'vaccine_'
'uth'
'uter'
'usi'
'urie'
'urb'
'upward_'
'unusual_'
'untr'
'unta'
'unse'
'unr'
'uniforme_'
'unified_'
'ung'
'unexp'
'undermining_'
'underlined_'
'underline_'
'underdevelop'
'unction'
'unce'
'unanimous_'
'unanime_'
'uler_'
'ulent'
'uire_'
'uga'
'ude'
'uc_'
'ubl'
'uai'
'témoin_'
'téléphonique_'
'téléphon'
'tz'
'tyran'
'typi'
'tus_'
'turc_'
'tunnels_'
'tuni'
'tud'
'trésorerie_'
'tré'
'truc'
'troubl'
'tropica'
'tromper_'
'tromp'
'triste'
'triple_'
'tribute_'
'trib'
'treating_'
'travaill'
'traumatisme'
'trap'
'transnationale'
'transmitting_'
'transfrontalier'
'transformé'
'transformat'
'tragic_'
'trad'
'tract'
'tracking_'
'trace'
'tournée_'
'touri'
'touche'
'tory_'
'torn'
'too'
'toire_'
'toilet_'
'toilet'
'toi_'
'tog'
'toe'
'tiv'
'titles_'
'tisa'
'tips_'
'tional_'
'tional'
'tina'
'tin_'
'timid'
'tili'
'tienne_'
'ticket_'
'tib'
'thématique_'
'thre'
'thr'
'thermal_'
'theatre_'
'test'
'terroriste_'
'territoriales_'
'terrestres_'
'terminal_'
'tender'
'technically_'
'teach_'
'tardive'
'taine_'
'séries_'
'sénateur'
'sées_'
'sécu'
'synth'
'sympathy_'
'sy'
'swing'
'suspicion_'
'surve'
'surprend'
'surprenant_'
'surpass'
'surcharge_'
'supposedly_'
'supporter_'
'supervisor'
'superviseur'
'summari'
'suggér'
'suggesting_'
'sue'
'sudden_'
'substitu'
'substantielle_'
'substantiel_'
'subsiste'
'subsidiaire_'
'subj'
'studios_'
'streamlin'
'streaming_'
'stops_'
'stipulated_'
'stipul'
'stin'
'stereo'
'stature_'
'stat'
'stalle'
'stakeholder_'
'stabilize_'
'ssl'
'ssion'
'ssa_'
'sr'
'spring'
'spous'
'spectateurs_'
'specific'
'specially_'
'spark'
'spam'
'spacieu'
'souterrain'
'soutenant_'
'sounds_'
'soumissionnaire'
'souhaité_'
'souhaiterait_'
'soudanais_'
'soudain'
'sortant_'
'sooner_'
'solo_'
'sofa'
'soa'
'snow'
'smuggl'
'smooth'
'slopes_'
'slide_'
'slave'
'sky'
'ska'
'sizes_'
'sixty_'
'situées_'
'sincèrement_'
'sincere_'
'simplist'
'signée_'
'signatures_'
'shut_'
'shortages_'
'shortage_'
'shipments_'
'shipment_'
'shaped_'
'shap'
'sha_'
'sex'
'setu'
'servers_'
'sensation_'
'seiz'
'see'
'sect_'
'secrète'
'secretary_'
'seas_'
'scrutin'
'script'
'scholars_'
'sceptic'
'sauve'
'sat'
'sape'
'salmon_'
'saisonni'
'sacré'
'sable_'
'réévalu'
'révélat'
'révis'
'réutilis'
'réussit'
'réussie_'
'rétabli'
'résidentiel'
'réservée_'
'répétée'
'réputé_'
'rémunér'
'régulier_'
'régn'
'réglée'
'régl'
'régie'
'réduirait_'
'récupération_'
'réclamer_'
'rts_'
'rte'
'rov'
'rounds_'
'roni'
'rondes_'
'rom'
'rolle'
'roit_'
'rly_'
'rivers_'
'rivaux_'
'riv'
'ripti'
'rio_'
'rigueur_'
'rigour'
'ride'
'rgi'
'reward_'
'revolutionary_'
'rever'
'revendications_'
'reu'
'retraités_'
'retou'
'retired_'
'retire'
'retain'
'ret_'
'restructur'
'restreindre_'
'restraint_'
'restaurer_'
'ressembl'
'respectées_'
'respectueu'
'resilient_'
'reset'
'rescue_'
'requi'
'représentées_'
'représentations_'
'représent'
'reporté'
'replies_'
'replacing_'
'replacement_'
'repar'
'renvoyer_'
'renvoi_'
'rente_'
'renforcé'
'rende'
'rencontrés_'
'rencontrées_'
'remporte'
'remplacé'
'reminds_'
'reminder_'
'remerciements_'
'rement_'
'relocation_'
'rejoint_'
'rejects_'
'rejecting_'
'reinforce'
'rein'
'reimburse'
'regulating_'
'refusa'
'reflété'
'refle'
'refine'
'refinance'
'refi'
'redéfini'
'redon'
'redes'
'recurr'
'recueilli'
'reclassifi'
'recipients_'
'reci'
'recevr'
'recensement_'
'recense'
'rebuil'
'rebels_'
'reaffirm_'
'reaffirm'
'ratify_'
'rapproche'
'rapporte'
'raph'
'rank'
'random_'
'rail'
'qué_'
'quotidienne'
'quitté_'
'queu'
'quet_'
'quasiment_'
'quarterly_'
'quar'
'quanti'
'qualities_'
'qualitati'
'qi'
'pêche'
'péril_'
'pénurie_'
'pén'
'purs'
'punished_'
'punish'
'pull'
'puits_'
'puissante_'
'psychologique'
'psychiatric_'
'prête'
'prévoient_'
'prévisible_'
'préval'
'prétendent_'
'préside_'
'présente'
'préparée'
'précéd'
'précisé'
'précaution_'
'pré_'
'prudent_'
'provoque_'
'provocation'
'provisoires_'
'proves_'
'protégée_'
'protégé_'
'prototyp'
'protectionnisme_'
'prospect'
'prorog'
'proposant_'
'proportions_'
'proportionnelle'
'proportion'
'propice_'
'prope'
'propagande_'
'promis_'
'promi'
'projections_'
'prohibiting_'
'prohibit_'
'proge'
'professor'
'produite_'
'produi'
'producteur_'
'proceeds_'
'procedural_'
'printing_'
'principally_'
'prevented_'
'present'
'prescrit'
'prenne_'
'premises_'
'prediction'
'predicted_'
'predica'
'prede'
'preceded_'
'precaution'
'preach'
'pray'
'pped_'
'pousser_'
'poursuivie'
'potato_'
'posting_'
'possédant_'
'portugaise_'
'portrait_'
'porn_'
'populist'
'popularité_'
'popul'
'poorly_'
'pond'
'ponctu'
'pollutants_'
'pointe'
'pocket'
'plunge'
'plo'
'plates_'
'plateau_'
'plastic_'
'plan'
'pires_'
'pine'
'pin_'
'pillars_'
'pia'
'phili'
'pher'
'phenomena_'
'phen'
'pharmaceutiques_'
'pharmaceutique_'
'pharmaceutical_'
'phant'
'petition'
'pest'
'pes_'
'perçu_'
'pervers'
'perturb'
'persuadé'
'persistant'
'persecution_'
'perpétré'
'permis'
'permettait_'
'perdu'
'perdent_'
'pensait_'
'pei'
'payés_'
'payroll_'
'passere'
'passe'
'parvient_'
'particula'
'participatory_'
'parte_'
'partagés_'
'partageons_'
'partag'
'parta'
'parfum'
'parcel'
'paraître_'
'parameter_'
'parallèles_'
'paradi'
'papiers_'
'panique_'
'panels_'
'pai'
'pH_'
'overt'
'overly_'
'ove'
'ouvrages_'
'ouver'
'outset_'
'outs'
'outrage'
'outlin'
'oublie'
'otic'
'oth_'
'osoph'
'osité_'
'osit'
'orth'
'ort_'
'origines_'
'originale_'
'origina'
'oria'
'organizing_'
'organisés_'
'org'
'orally_'
'opho'
'openly_'
'onward'
'onset_'
'ono'
'onist'
'omin'
'oirs_'
'oie'
'oge'
'offs'
'offertes_'
'offens'
'ods_'
'odal'
'ock_'
'oche'
'occupying_'
'occupant_'
'occasionnel'
'obtient_'
'obtenues_'
'obten'
'observé'
'objecti'
'obe'
'négocié_'
'négocia'
'négligeable_'
'négatifs_'
'néfastes_'
'nçant_'
'nç'
'nza'
'nw'
'numér'
'nu_'
'ntra'
'ntr'
'ntly_'
'novel_'
'novat'
'nouve'
'nourrir_'
'notions_'
'notify_'
'notices_'
'nonc'
'nommés_'
'nn_'
'nment'
'niste'
'nist'
'nica_'
'nho'
'neutral_'
'networking_'
'nettoy'
'nder_'
'navire_'
'navigu'
'navigable'
'nautique'
'natal'
'nant'
'nan'
'mét'
'méritent_'
'mémora'
'média'
'mécon'
'mutilation'
'muta'
'musées_'
'multipart'
'multiculturalisme_'
'mul'
'mouse_'
'motivée'
'monter_'
'montage_'
'monitors_'
'modula'
'modif'
'modem_'
'moc'
'mobilization_'
'mixture_'
'misleading_'
'miscon'
'minière'
'ministries_'
'minimi'
'mination_'
'milita'
'mili'
'migrato'
'migrant_'
'mig'
'mie'
'meurtre_'
'meublé'
'metric'
'methodologi'
'mete'
'messi'
'merveilleu'
'mentionne_'
'mente'
'mentaire'
'ment'
'mend'
'menacée'
'memor'
'mei'
'medi'
'maître_'
'matur'
'material'
'masters_'
'marr'
'marquée_'
'marqua'
'marijuana_'
'margin'
'marg'
'march'
'manuels_'
'manger_'
'mane'
'mandat'
'manche'
'manages_'
'malt'
'malheur'
'maintes_'
'mainstream_'
'mail'
'magnifiques_'
'magistrats_'
'm3_'
'légalité_'
'lè'
'lude'
'lubri'
'lti'
'lse'
'lourde_'
'lord'
'loose_'
'longitude_'
'logg'
'lodge'
'llo'
'literacy_'
'liter'
'lisme_'
'lini'
'lifting_'
'liees_'
'licensed_'
'libéralis'
'libéral_'
'libraries_'
'lg'
'lesc'
'legislat'
'lection'
'lean'
'lds_'
'laïc'
'layer_'
'lasted_'
'last'
'largeur_'
'laire_'
'lad'
'labor'
'labels_'
'label'
'kk'
'kit'
'kie'
'kb'
'kan_'
'juv'
'juifs_'
'jugée_'
'juger_'
'jt'
'joy'
'journaliste_'
'journalis'
'jouir_'
'joua'
'jk'
'jet_'
'jazz_'
'iés_'
'ix'
'iv'
'itin'
'ith'
'italienne_'
'itali'
'itai'
'isés_'
'istic_'
'istan'
'issuing_'
'issa'
'israélo_'
'isolée'
'isoler_'
'isn_'
'irrégularité'
'ironi'
'ired_'
'irakien_'
'ips'
'iously_'
'ionnelle'
'iona'
'inévitablement_'
'invol'
'invitée'
'invita'
'investor_'
'investing_'
'investigating_'
'inver'
'inventions_'
'intéresse_'
'intégral_'
'intimate'
'intestin'
'intervene_'
'intervalle'
'interpréter_'
'interprétations_'
'interprète_'
'international'
'intermédiaires_'
'interc'
'intent'
'insé'
'insuffisant'
'institute_'
'inspiré_'
'inspectors_'
'insonorisées_'
'insolv'
'insol'
'insiste_'
'insist'
'insi'
'inscriv'
'insa'
'inquiét'
'innocent'
'inland_'
'inject'
'inhuman'
'ingénieurs_'
'ingredients_'
'ingr'
'informel'
'informatiques_'
'informati'
'influences_'
'influencer_'
'influ'
'infecti'
'infa'
'indépendantes_'
'individuellement_'
'indisc'
'indiquées_'
'indiquée_'
'indebted_'
'incursion'
'incr'
'incluent_'
'incité'
'incita'
'incertitudes_'
'incendies_'
'ince'
'inal'
'impératif_'
'imput'
'improves_'
'impression'
'impre'
'impossib'
'imposes_'
'impliquant_'
'impetus_'
'imperial_'
'impartial'
'illustration'
'iller_'
'illegally_'
'iler'
'ika_'
'ignoré_'
'ige_'
'iff'
'iew'
'ieth_'
'iennes_'
'idéalement_'
'iding_'
'identit'
'identiques_'
'ident'
'icien'
'ice'
'ica_'
'ibilit'
'iar'
'iant'
'hys'
'hur'
'humble'
'huile_'
'hub'
'ht_'
'hosts_'
'homologues_'
'holy_'
'hn_'
'hl'
'hil'
'hike'
'hib'
'hesita'
'heroi'
'hereby_'
'herb'
'hema'
'help'
'heel'
'hebdomadaire'
'heaven'
'heated_'
'hearts_'
'hea'
'hd'
'haus'
'hate_'
'harmonization_'
'harmoniser_'
'harmonised_'
'hardware_'
'hanc'
'hamper'
'halt_'
'hal_'
'hairdryer_'
'habit'
'gés_'
'génér'
'gé_'
'guideline_'
'guards_'
'guardian'
'guard_'
'gt_'
'gré_'
'grève_'
'grounde'
'grosses_'
'grip_'
'grill'
'gre_'
'gravity_'
'gratuits_'
'grat'
'graphics_'
'grandeur_'
'grand'
'graduates_'
'graduate_'
'graci'
'gorge'
'glyc'
'giga'
'giant_'
'ghts_'
'ghte'
'gend'
'gear_'
'gastronomi'
'gasoline_'
'gam'
'gagne_'
'gab'
'fut'
'fus'
'furthermore_'
'fundamentally_'
'fumer_'
'fue'
'fronts_'
'frontier_'
'frig'
'freshwater_'
'freight_'
'franc'
'fragment'
'fournitures_'
'fostering_'
'fossé_'
'fossil_'
'formés_'
'formule'
'formelle_'
'formati'
'foreigners_'
'forefront_'
'forcing_'
'forc'
'fonde_'
'fondateur_'
'fonctionnaire_'
'focalis'
'flou'
'flee'
'flat_'
'flamb'
'fixée_'
'fishery_'
'fire'
'finish'
'finir'
'finest_'
'financements_'
'filling_'
'file'
'filament'
'fidèles_'
'fici'
'ffo'
'ffect'
'fenêtres_'
'femelles_'
'feet_'
'feed'
'federa'
'featuring_'
'featured_'
'favorise'
'fatal_'
'fasci'
'farmer_'
'fanati'
'facilité_'
'facilitera'
'facilitates_'
'facilitate'
'fabriqué'
'fabrique'
'exécutions_'
'exécuti'
'exu'
'extrémisme_'
'extraordinaires_'
'extract'
'extinction_'
'exter'
'extensi'
'expérimental'
'expédition_'
'expressément_'
'explosive_'
'explosi'
'exploited_'
'explaining_'
'expire'
'existenti'
'existed_'
'exist'
'exil'
'exige'
'exerted_'
'exercé_'
'exercised_'
'exercices_'
'exer'
'executions_'
'executed_'
'execut'
'excédentaire'
'exclus_'
'exclude_'
'excite'
'examina'
'evi'
'europ'
'ette'
'ethics_'
'eth_'
'estimati'
'establishes_'
'essi'
'esqu'
'espe'
'espagnole_'
'espagnol'
'escompté'
'ersa'
'eri'
'eres'
'eradicate_'
'equal'
'eo_'
'envo'
'envisagé_'
'enveloppe_'
'entrant'
'entrai'
'ently_'
'ention_'
'enthusiasm_'
'enters_'
'entamé_'
'enrichir_'
'enquêteurs_'
'enir_'
'enhancement_'
'engines_'
'engendré'
'engagent_'
'endorse'
'encr'
'encourageant'
'encounter_'
'enclave'
'encl'
'enchères_'
'encadr'
'empêché'
'empêchent_'
'empêche_'
'empty_'
'emprunt_'
'emprunt'
'empris'
'emphasised_'
'emmen'
'embarrass'
'em'
'elites_'
'electorate_'
'eho'
'efforcé'
'eer'
'eding_'
'ecosystem_'
'echo'
'earthquake_'
'earn'
'ead'
'déçu'
'développe'
'développ'
'détourne'
'détenu_'
'détendre_'
'détach'
'désignation_'
'dérogation'
'dépose'
'déploie'
'déplacé'
'dépendan'
'dépe'
'dépassée'
'démonstration_'
'déme'
'dégagé'
'dégager_'
'défici'
'déclarés_'
'débiteurs_'
'dynamiques_'
'dw'
'durer'
'dump'
'duly_'
'duction_'
'dron'
'downs'
'dow'
'dov'
'douloureuse'
'douane_'
'dotée_'
'donateur_'
'donat'
'dominante_'
'domina'
'dogs_'
'documentaire_'
'document'
'doctors_'
'doct'
'dock'
'divulg'
'divis'
'divergent'
'dive'
'diu'
'distributors_'
'distribu'
'distorsion'
'distinctes_'
'dispense_'
'disparu'
'disparities_'
'dispara'
'disons_'
'disma'
'dish'
'discuté_'
'discret'
'disciplinaire'
'disciples_'
'discerni'
'diplôme_'
'diminish_'
'diffuser_'
'difficilement_'
'dictator_'
'diamonds_'
'dialogues_'
'deviendra_'
'deviat'
'devenues_'
'developmental_'
'deva'
'detriment_'
'destructive_'
'dest'
'desservi_'
'design'
'descent'
'descendant'
'deri'
'denounc'
'denominat'
'democrati'
'demandée_'
'demandé'
'della_'
'deliberations_'
'deliberately_'
'deliberate_'
'deleted_'
'del'
'degrad'
'deflation'
'definitive'
'deficiencies_'
'deepening_'
'deck'
'debu'
'dau'
'danois'
'dance'
'dag'
'dable_'
'côti'
'célèbres_'
'cé_'
'cè'
'cyni'
'cyclist'
'curs'
'curriculum_'
'curio'
'cup'
'ctu'
'crypt'
'crude_'
'cru_'
'croyons_'
'critiqu'
'crati'
'crash_'
'crack'
'coûteuse'
'coïncide'
'cov'
'cous'
'coupe_'
'counterp'
'councils_'
'coton_'
'corrosi'
'correspondance_'
'correcte_'
'copier_'
'copi'
'cook'
'convenus_'
'conventionnelle'
'convaincue_'
'contrôlés_'
'controller'
'contributors_'
'contribuer'
'contrepartie_'
'contraints_'
'contraignant'
'contracted_'
'contraceptive'
'continuously_'
'continuit'
'contingent_'
'conten'
'contemporain'
'contagion_'
'consultez_'
'constitue'
'constituant_'
'consolidé'
'considérant_'
'conservateurs_'
'conservateur_'
'consequently_'
'conscien'
'connaissez_'
'conna'
'conn'
'confrontée_'
'confirme_'
'confined_'
'conduisant_'
'conduis'
'conditionné'
'conditionne'
'condamnation_'
[...]
